{
  "version": "1.0",
  "truncation": {
    "direction": "Right",
    "max_length": 128,
    "strategy": "LongestFirst",
    "stride": 0
  },
  "padding": {
    "strategy": {
      "Fixed": 128
    },
    "direction": "Right",
    "pad_to_multiple_of": null,
    "pad_id": 0,
    "pad_type_id": 0,
    "pad_token": "<pad>"
  },
  "added_tokens": [
    {
      "id": 0,
      "content": "<pad>",
      "single_word": false,
      "lstrip": false,
      "rstrip": false,
      "normalized": false,
      "special": true
    },
    {
      "id": 1,
      "content": "<unk>",
      "single_word": false,
      "lstrip": false,
      "rstrip": false,
      "normalized": false,
      "special": true
    },
    {
      "id": 2,
      "content": "<s>",
      "single_word": false,
      "lstrip": false,
      "rstrip": false,
      "normalized": false,
      "special": true
    },
    {
      "id": 3,
      "content": "</s>",
      "single_word": false,
      "lstrip": false,
      "rstrip": false,
      "normalized": false,
      "special": true
    },
    {
      "id": 4500,
      "content": "<mask>",
      "single_word": false,
      "lstrip": false,
      "rstrip": false,
      "normalized": false,
      "special": true
    }
  ],
  "normalizer": {
    "type": "Sequence",
    "normalizers": [
      {
        "type": "Nmt"
      },
      {
        "type": "NFKC"
      },
      {
        "type": "Replace",
        "pattern": {
          "Regex": " {2,}"
        },
        "content": " "
      }
    ]
  },
  "pre_tokenizer": {
    "type": "Metaspace",
    "replacement": "▁",
    "prepend_scheme": "always",
    "split": true
  },
  "post_processor": {
    "type": "TemplateProcessing",
    "single": [
      {
        "SpecialToken": {
          "id": "<s>",
          "type_id": 0
        }
      },
      {
        "Sequence": {
          "id": "A",
          "type_id": 0
        }
      },
      {
        "SpecialToken": {
          "id": "</s>",
          "type_id": 0
        }
      }
    ],
    "pair": [
      {
        "SpecialToken": {
          "id": "<s>",
          "type_id": 0
        }
      },
      {
        "Sequence": {
          "id": "A",
          "type_id": 0
        }
      },
      {
        "SpecialToken": {
          "id": "</s>",
          "type_id": 0
        }
      },
      {
        "Sequence": {
          "id": "B",
          "type_id": 1
        }
      },
      {
        "SpecialToken": {
          "id": "</s>",
          "type_id": 1
        }
      }
    ],
    "special_tokens": {
      "</s>": {
        "id": "</s>",
        "ids": [
          3
        ],
        "tokens": [
          "</s>"
        ]
      },
      "<s>": {
        "id": "<s>",
        "ids": [
          2
        ],
        "tokens": [
          "<s>"
        ]
      }
    }
  },
  "decoder": {
    "type": "Metaspace",
    "replacement": "▁",
    "prepend_scheme": "always",
    "split": true
  },
  "model": {
    "type": "Unigram",
    "unk_id": 1,
    "vocab": [
      [
        "<pad>",
        0.0
      ],
      [
        "<unk>",
        0.0
      ],
      [
        "<s>",
        0.0
      ],
      [
        "</s>",
        0.0
      ],
      [
        "2-",
        -0.0
      ],
      [
        "na",
        -1.0
      ],
      [
        "ni",
        -2.0
      ],
      [
        "ga",
        -3.0
      ],
      [
        "DE",
        -4.0
      ],
      [
        "mu",
        -5.0
      ],
      [
        "{{",
        -6.0
      ],
      [
        "}}",
        -7.0
      ],
      [
        "DET",
        -8.0
      ],
      [
        "ba",
        -9.0
      ],
      [
        "▁a",
        -10.0
      ],
      [
        "▁k",
        -11.0
      ],
      [
        "▁x",
        -12.0
      ],
      [
        "ur",
        -13.0
      ],
      [
        "3-",
        -14.0
      ],
      [
        "▁i",
        -15.0
      ],
      [
        "NE",
        -16.0
      ],
      [
        "en",
        -17.0
      ],
      [
        "▁{{",
        -18.0
      ],
      [
        "du",
        -19.0
      ],
      [
        "gi",
        -20.0
      ],
      [
        "DI",
        -21.0
      ],
      [
        "ma",
        -22.0
      ],
      [
        "ra",
        -23.0
      ],
      [
        "VI",
        -24.0
      ],
      [
        "DIVI",
        -25.0
      ],
      [
        "DIVINE",
        -26.0
      ],
      [
        "da",
        -27.0
      ],
      [
        "la",
        -28.0
      ],
      [
        "bi",
        -29.0
      ],
      [
        "▁š",
        -30.0
      ],
      [
        "▁u",
        -31.0
      ],
      [
        "▁mu",
        -32.0
      ],
      [
        "▁s",
        -33.0
      ],
      [
        "lu",
        -34.0
      ],
      [
        "▁e",
        -35.0
      ],
      [
        "ĝa",
        -36.0
      ],
      [
        "nu",
        -37.0
      ],
      [
        "▁h",
        -38.0
      ],
      [
        "gal",
        -39.0
      ],
      [
        "gu",
        -40.0
      ],
      [
        "ta",
        -41.0
      ],
      [
        "▁ba",
        -42.0
      ],
      [
        "4-",
        -43.0
      ],
      [
        "in",
        -44.0
      ],
      [
        "me",
        -45.0
      ],
      [
        "▁ki",
        -46.0
      ],
      [
        "▁ni",
        -47.0
      ],
      [
        "zu",
        -48.0
      ],
      [
        "tu",
        -49.0
      ],
      [
        "▁lu",
        -50.0
      ],
      [
        "▁na",
        -51.0
      ],
      [
        "▁du",
        -52.0
      ],
      [
        "še",
        -53.0
      ],
      [
        "ĝi",
        -54.0
      ],
      [
        "an",
        -55.0
      ],
      [
        "il",
        -56.0
      ],
      [
        "ri",
        -57.0
      ],
      [
        "10",
        -58.0
      ],
      [
        "▁nu",
        -59.0
      ],
      [
        "ag",
        -60.0
      ],
      [
        "eš",
        -61.0
      ],
      [
        "ka",
        -62.0
      ],
      [
        "▁z",
        -63.0
      ],
      [
        "de",
        -64.0
      ],
      [
        "di",
        -65.0
      ],
      [
        "▁šu",
        -66.0
      ],
      [
        "un",
        -67.0
      ],
      [
        "▁X",
        -68.0
      ],
      [
        "ne",
        -69.0
      ],
      [
        "▁nam",
        -70.0
      ],
      [
        "▁gu",
        -71.0
      ],
      [
        "LA",
        -72.0
      ],
      [
        "ĝu",
        -73.0
      ],
      [
        "sa",
        -74.0
      ],
      [
        "PLA",
        -75.0
      ],
      [
        "CE",
        -76.0
      ],
      [
        "PLACE",
        -77.0
      ],
      [
        "▁ma",
        -78.0
      ],
      [
        "am",
        -79.0
      ],
      [
        "gin",
        -80.0
      ],
      [
        "▁an",
        -81.0
      ],
      [
        "▁he",
        -82.0
      ],
      [
        "▁ku",
        -83.0
      ],
      [
        "ku",
        -84.0
      ],
      [
        "▁sa",
        -85.0
      ],
      [
        "ke",
        -86.0
      ],
      [
        "▁ur",
        -87.0
      ],
      [
        "▁{",
        -88.0
      ],
      [
        "ĝal",
        -89.0
      ],
      [
        "ĝiš",
        -90.0
      ],
      [
        "▁ka",
        -91.0
      ],
      [
        "ab",
        -92.0
      ],
      [
        "▁si",
        -93.0
      ],
      [
        "si",
        -94.0
      ],
      [
        "▁ga",
        -95.0
      ],
      [
        "▁im",
        -96.0
      ],
      [
        "re",
        -97.0
      ],
      [
        "▁gal",
        -98.0
      ],
      [
        "▁lugal",
        -99.0
      ],
      [
        "▁di",
        -100.0
      ],
      [
        "šu",
        -101.0
      ],
      [
        "▁me",
        -102.0
      ],
      [
        "mi",
        -103.0
      ],
      [
        "▁kur",
        -104.0
      ],
      [
        "su",
        -105.0
      ],
      [
        "▁en",
        -106.0
      ],
      [
        "pa",
        -107.0
      ],
      [
        "lil",
        -108.0
      ],
      [
        "▁niĝ",
        -109.0
      ],
      [
        "▁zi",
        -110.0
      ],
      [
        "5-",
        -111.0
      ],
      [
        "▁gi",
        -112.0
      ],
      [
        "}}-",
        -113.0
      ],
      [
        "ib",
        -114.0
      ],
      [
        "▁ud",
        -115.0
      ],
      [
        "nin",
        -116.0
      ],
      [
        "7-",
        -117.0
      ],
      [
        "▁šag",
        -118.0
      ],
      [
        "ru",
        -119.0
      ],
      [
        "im",
        -120.0
      ],
      [
        "▁bi",
        -121.0
      ],
      [
        "▁hu",
        -122.0
      ],
      [
        "▁kug",
        -123.0
      ],
      [
        "▁su",
        -124.0
      ],
      [
        "za",
        -125.0
      ],
      [
        "ki",
        -126.0
      ],
      [
        "ĝar",
        -127.0
      ],
      [
        "ge",
        -128.0
      ],
      [
        "▁igi",
        -129.0
      ],
      [
        "▁saĝ",
        -130.0
      ],
      [
        "dug",
        -131.0
      ],
      [
        "kur",
        -132.0
      ],
      [
        "▁dumu",
        -133.0
      ],
      [
        "lam",
        -134.0
      ],
      [
        "▁da",
        -135.0
      ],
      [
        "▁t",
        -136.0
      ],
      [
        "6-",
        -137.0
      ],
      [
        "▁dug",
        -138.0
      ],
      [
        "▁za",
        -139.0
      ],
      [
        "▁tu",
        -140.0
      ],
      [
        "ĝir",
        -141.0
      ],
      [
        "saĝ",
        -142.0
      ],
      [
        "9-",
        -143.0
      ],
      [
        "▁ša",
        -144.0
      ],
      [
        "▁nin",
        -145.0
      ],
      [
        "nim",
        -146.0
      ],
      [
        "zi",
        -147.0
      ],
      [
        "ši",
        -148.0
      ],
      [
        "▁zid",
        -149.0
      ],
      [
        "gur",
        -150.0
      ],
      [
        "ĝeš",
        -151.0
      ],
      [
        "10-",
        -152.0
      ],
      [
        "▁ha",
        -153.0
      ],
      [
        "li",
        -154.0
      ],
      [
        "▁mah",
        -155.0
      ],
      [
        "▁še",
        -156.0
      ],
      [
        "bar",
        -157.0
      ],
      [
        "be",
        -158.0
      ],
      [
        "▁la",
        -159.0
      ],
      [
        "pad",
        -160.0
      ],
      [
        "8-",
        -161.0
      ],
      [
        "▁inim",
        -162.0
      ],
      [
        "ak",
        -163.0
      ],
      [
        "▁mi",
        -164.0
      ],
      [
        "le",
        -165.0
      ],
      [
        "▁ama",
        -166.0
      ],
      [
        "▁iri",
        -167.0
      ],
      [
        "tar",
        -168.0
      ],
      [
        "kam",
        -169.0
      ],
      [
        "▁diĝir",
        -170.0
      ],
      [
        "tuku",
        -171.0
      ],
      [
        "▁sag",
        -172.0
      ],
      [
        "▁ĝi",
        -173.0
      ],
      [
        "▁ab",
        -174.0
      ],
      [
        "ša",
        -175.0
      ],
      [
        "▁ĝiš",
        -176.0
      ],
      [
        "nam",
        -177.0
      ],
      [
        "uš",
        -178.0
      ],
      [
        "gub",
        -179.0
      ],
      [
        "aš",
        -180.0
      ],
      [
        "bur",
        -181.0
      ],
      [
        "ul",
        -182.0
      ],
      [
        "▁in",
        -183.0
      ],
      [
        "▁d",
        -184.0
      ],
      [
        "tum",
        -185.0
      ],
      [
        "ina",
        -186.0
      ],
      [
        "te",
        -187.0
      ],
      [
        "-{{",
        -188.0
      ],
      [
        "um",
        -189.0
      ],
      [
        "šum",
        -190.0
      ],
      [
        "DU",
        -191.0
      ],
      [
        "ha",
        -192.0
      ],
      [
        "▁K",
        -193.0
      ],
      [
        "▁kalam",
        -194.0
      ],
      [
        "ti",
        -195.0
      ],
      [
        "▁hul",
        -196.0
      ],
      [
        "▁aĝ",
        -197.0
      ],
      [
        "inana",
        -198.0
      ],
      [
        "▁1",
        -199.0
      ],
      [
        "em",
        -200.0
      ],
      [
        "sig",
        -201.0
      ],
      [
        "til",
        -202.0
      ],
      [
        "ER",
        -203.0
      ],
      [
        "bu",
        -204.0
      ],
      [
        "utu",
        -205.0
      ],
      [
        "sag",
        -206.0
      ],
      [
        "er",
        -207.0
      ],
      [
        "▁ši",
        -208.0
      ],
      [
        "▁eš",
        -209.0
      ],
      [
        "nan",
        -210.0
      ],
      [
        "▁A",
        -211.0
      ],
      [
        "▁al",
        -212.0
      ],
      [
        "▁bar",
        -213.0
      ],
      [
        "▁muš",
        -214.0
      ],
      [
        "nun",
        -215.0
      ],
      [
        "▁ĝeš",
        -216.0
      ],
      [
        "▁am",
        -217.0
      ],
      [
        "ĝen",
        -218.0
      ],
      [
        "suen",
        -219.0
      ],
      [
        "▁gur",
        -220.0
      ],
      [
        "IR",
        -221.0
      ],
      [
        "▁nun",
        -222.0
      ],
      [
        "rig",
        -223.0
      ],
      [
        "▁ĝiri",
        -224.0
      ],
      [
        "kal",
        -225.0
      ],
      [
        "al",
        -226.0
      ],
      [
        ")-",
        -227.0
      ],
      [
        "▁ĝar",
        -228.0
      ],
      [
        "▁er",
        -229.0
      ],
      [
        "▁p",
        -230.0
      ],
      [
        "▁pa",
        -231.0
      ],
      [
        "▁gud",
        -232.0
      ],
      [
        "dab",
        -233.0
      ],
      [
        "▁ĝal",
        -234.0
      ],
      [
        "gir",
        -235.0
      ],
      [
        "▁sig",
        -236.0
      ],
      [
        "nanna",
        -237.0
      ],
      [
        "GA",
        -238.0
      ],
      [
        "2{{",
        -239.0
      ],
      [
        "kil",
        -240.0
      ],
      [
        "▁KA",
        -241.0
      ],
      [
        "mun",
        -242.0
      ],
      [
        "tuš",
        -243.0
      ],
      [
        "▁uru",
        -244.0
      ],
      [
        "▁ĝa",
        -245.0
      ],
      [
        "▁uĝ",
        -246.0
      ],
      [
        "▁zag",
        -247.0
      ],
      [
        "lag",
        -248.0
      ],
      [
        "AT",
        -249.0
      ],
      [
        "▁zu",
        -250.0
      ],
      [
        "ub",
        -251.0
      ],
      [
        "▁dub",
        -252.0
      ],
      [
        "dim",
        -253.0
      ],
      [
        "bal",
        -254.0
      ],
      [
        "▁ta",
        -255.0
      ],
      [
        "▁hur",
        -256.0
      ],
      [
        "zal",
        -257.0
      ],
      [
        "šub",
        -258.0
      ],
      [
        "tur",
        -259.0
      ],
      [
        "▁gig",
        -260.0
      ],
      [
        "mah",
        -261.0
      ],
      [
        "▁ĝ",
        -262.0
      ],
      [
        "ud",
        -263.0
      ],
      [
        "BIR",
        -264.0
      ],
      [
        "▁tur",
        -265.0
      ],
      [
        "iš",
        -266.0
      ],
      [
        "rag",
        -267.0
      ],
      [
        "us",
        -268.0
      ],
      [
        "dam",
        -269.0
      ],
      [
        "rim",
        -270.0
      ],
      [
        "▁il",
        -271.0
      ],
      [
        "aĝ",
        -272.0
      ],
      [
        "BIRD",
        -273.0
      ],
      [
        "▁1(",
        -274.0
      ],
      [
        "nus",
        -275.0
      ],
      [
        "11",
        -276.0
      ],
      [
        "▁|",
        -277.0
      ],
      [
        "lugal",
        -278.0
      ],
      [
        "▁tuku",
        -279.0
      ],
      [
        "▁šul",
        -280.0
      ],
      [
        "hul",
        -281.0
      ],
      [
        "bbar",
        -282.0
      ],
      [
        "kar",
        -283.0
      ],
      [
        "ed",
        -284.0
      ],
      [
        "▁um",
        -285.0
      ],
      [
        "ST",
        -286.0
      ],
      [
        "ONE",
        -287.0
      ],
      [
        "STONE",
        -288.0
      ],
      [
        "gul",
        -289.0
      ],
      [
        "▁M",
        -290.0
      ],
      [
        "urta",
        -291.0
      ],
      [
        "ze",
        -292.0
      ],
      [
        "▁ak",
        -293.0
      ],
      [
        "hur",
        -294.0
      ],
      [
        "▁dam",
        -295.0
      ],
      [
        "sar",
        -296.0
      ],
      [
        "▁ed",
        -297.0
      ],
      [
        "ir",
        -298.0
      ],
      [
        "▁sipad",
        -299.0
      ],
      [
        "▁tar",
        -300.0
      ],
      [
        "▁U",
        -301.0
      ],
      [
        "▁dur",
        -302.0
      ],
      [
        "▁unu",
        -303.0
      ],
      [
        "šag",
        -304.0
      ],
      [
        "▁ul",
        -305.0
      ],
      [
        "ili",
        -306.0
      ],
      [
        "▁maš",
        -307.0
      ],
      [
        "▁tum",
        -308.0
      ],
      [
        "▁gaba",
        -309.0
      ],
      [
        "▁us",
        -310.0
      ],
      [
        "26-",
        -311.0
      ],
      [
        "▁de",
        -312.0
      ],
      [
        "tag",
        -313.0
      ],
      [
        "zid",
        -314.0
      ],
      [
        "▁ib",
        -315.0
      ],
      [
        "▁barag",
        -316.0
      ],
      [
        "gar",
        -317.0
      ],
      [
        "▁ad",
        -318.0
      ],
      [
        "LE",
        -319.0
      ],
      [
        "diš",
        -320.0
      ],
      [
        "dub",
        -321.0
      ],
      [
        "▁bad",
        -322.0
      ],
      [
        "▁gub",
        -323.0
      ],
      [
        "▁li",
        -324.0
      ],
      [
        "▁id",
        -325.0
      ],
      [
        "geš",
        -326.0
      ],
      [
        "▁šar",
        -327.0
      ],
      [
        "tug",
        -328.0
      ],
      [
        "nir",
        -329.0
      ],
      [
        "▁ne",
        -330.0
      ],
      [
        "▁urim",
        -331.0
      ],
      [
        "▁šeš",
        -332.0
      ],
      [
        "babbar",
        -333.0
      ],
      [
        "▁hi",
        -334.0
      ],
      [
        "▁kiĝ",
        -335.0
      ],
      [
        "▁ninda",
        -336.0
      ],
      [
        "▁abzu",
        -337.0
      ],
      [
        "▁ugu",
        -338.0
      ],
      [
        "▁ara",
        -339.0
      ],
      [
        "▁ĝeštug",
        -340.0
      ],
      [
        "▁giri",
        -341.0
      ],
      [
        "tud",
        -342.0
      ],
      [
        "▁til",
        -343.0
      ],
      [
        "bru",
        -344.0
      ],
      [
        "WAT",
        -345.0
      ],
      [
        "WATER",
        -346.0
      ],
      [
        "RI",
        -347.0
      ],
      [
        "▁N",
        -348.0
      ],
      [
        "▁ĝe",
        -349.0
      ],
      [
        "kud",
        -350.0
      ],
      [
        "▁bal",
        -351.0
      ],
      [
        "gig",
        -352.0
      ],
      [
        "▁bur",
        -353.0
      ],
      [
        "▁nibru",
        -354.0
      ],
      [
        "▁munus",
        -355.0
      ],
      [
        "▁šeg",
        -356.0
      ],
      [
        "▁T",
        -357.0
      ],
      [
        "▁DU",
        -358.0
      ],
      [
        "AR",
        -359.0
      ],
      [
        "▁2",
        -360.0
      ],
      [
        "▁daĝal",
        -361.0
      ],
      [
        "gid",
        -362.0
      ],
      [
        "(|",
        -363.0
      ],
      [
        "▁udu",
        -364.0
      ],
      [
        "lim",
        -365.0
      ],
      [
        "▁šum",
        -366.0
      ],
      [
        "tukul",
        -367.0
      ],
      [
        "GI",
        -368.0
      ],
      [
        "dur",
        -369.0
      ],
      [
        "har",
        -370.0
      ],
      [
        "tah",
        -371.0
      ],
      [
        "luh",
        -372.0
      ],
      [
        "gen",
        -373.0
      ],
      [
        "▁sikil",
        -374.0
      ],
      [
        "▁te",
        -375.0
      ],
      [
        "▁ti",
        -376.0
      ],
      [
        "▁huš",
        -377.0
      ],
      [
        "lum",
        -378.0
      ],
      [
        "▁dili",
        -379.0
      ],
      [
        "▁I",
        -380.0
      ],
      [
        "▁tug",
        -381.0
      ],
      [
        "▁zig",
        -382.0
      ],
      [
        "17",
        -383.0
      ],
      [
        "▁kar",
        -384.0
      ],
      [
        "▁kalag",
        -385.0
      ],
      [
        "niĝ",
        -386.0
      ],
      [
        "▁ri",
        -387.0
      ],
      [
        "ar",
        -388.0
      ],
      [
        "17-",
        -389.0
      ],
      [
        "▁B",
        -390.0
      ],
      [
        "KA",
        -391.0
      ],
      [
        "▁nir",
        -392.0
      ],
      [
        "▁pi",
        -393.0
      ],
      [
        "▁eri",
        -394.0
      ],
      [
        "▁kaš",
        -395.0
      ],
      [
        "sikil",
        -396.0
      ],
      [
        "erim",
        -397.0
      ],
      [
        "eb",
        -398.0
      ],
      [
        "11-",
        -399.0
      ],
      [
        "▁AN",
        -400.0
      ],
      [
        "šar",
        -401.0
      ],
      [
        "▁sila",
        -402.0
      ],
      [
        "sal",
        -403.0
      ],
      [
        "12-",
        -404.0
      ],
      [
        "▁dim",
        -405.0
      ],
      [
        "▁teš",
        -406.0
      ],
      [
        "meš",
        -407.0
      ],
      [
        "UR",
        -408.0
      ],
      [
        "▁suh",
        -409.0
      ],
      [
        "▁šir",
        -410.0
      ],
      [
        "gan",
        -411.0
      ],
      [
        "▁pad",
        -412.0
      ],
      [
        "zig",
        -413.0
      ],
      [
        "gx",
        -414.0
      ],
      [
        "▁unug",
        -415.0
      ],
      [
        "▁dirig",
        -416.0
      ],
      [
        "ulu",
        -417.0
      ],
      [
        "▁GA",
        -418.0
      ],
      [
        "▁amaš",
        -419.0
      ],
      [
        "MA",
        -420.0
      ],
      [
        "▁MU",
        -421.0
      ],
      [
        "sin",
        -422.0
      ],
      [
        "dul",
        -423.0
      ],
      [
        "sud",
        -424.0
      ],
      [
        "▁sahar",
        -425.0
      ],
      [
        "▁3",
        -426.0
      ],
      [
        "▁kuš",
        -427.0
      ],
      [
        "ilim",
        -428.0
      ],
      [
        "▁mušen",
        -429.0
      ],
      [
        "PER",
        -430.0
      ],
      [
        "|-",
        -431.0
      ],
      [
        "riĝ",
        -432.0
      ],
      [
        "▁gul",
        -433.0
      ],
      [
        "LU",
        -434.0
      ],
      [
        "}-",
        -435.0
      ],
      [
        "18-",
        -436.0
      ],
      [
        "ATH",
        -437.0
      ],
      [
        "ATHER",
        -438.0
      ],
      [
        "LEATHER",
        -439.0
      ],
      [
        "ig",
        -440.0
      ],
      [
        "▁un",
        -441.0
      ],
      [
        "▁uš",
        -442.0
      ],
      [
        "▁S",
        -443.0
      ],
      [
        "dag",
        -444.0
      ],
      [
        "hu",
        -445.0
      ],
      [
        "kiĝ",
        -446.0
      ],
      [
        "kkal",
        -447.0
      ],
      [
        "▁piriĝ",
        -448.0
      ],
      [
        "ban",
        -449.0
      ],
      [
        "▁NE",
        -450.0
      ],
      [
        "▁edin",
        -451.0
      ],
      [
        "5{{",
        -452.0
      ],
      [
        "dumu",
        -453.0
      ],
      [
        "sug",
        -454.0
      ],
      [
        "▁sukkal",
        -455.0
      ],
      [
        "▁ra",
        -456.0
      ],
      [
        "▁dab",
        -457.0
      ],
      [
        "bir",
        -458.0
      ],
      [
        "kug",
        -459.0
      ],
      [
        "▁nig",
        -460.0
      ],
      [
        "|)",
        -461.0
      ],
      [
        "he",
        -462.0
      ],
      [
        "▁iti",
        -463.0
      ],
      [
        "men",
        -464.0
      ],
      [
        "▁arad",
        -465.0
      ],
      [
        "12",
        -466.0
      ],
      [
        "mar",
        -467.0
      ],
      [
        "▁uri",
        -468.0
      ],
      [
        "▁silim",
        -469.0
      ],
      [
        "▁ag",
        -470.0
      ],
      [
        "sur",
        -471.0
      ],
      [
        "uruš",
        -472.0
      ],
      [
        "▁tud",
        -473.0
      ],
      [
        "gud",
        -474.0
      ],
      [
        "▁ensi",
        -475.0
      ],
      [
        "▁DI",
        -476.0
      ],
      [
        "EŠ",
        -477.0
      ],
      [
        "▁ze",
        -478.0
      ],
      [
        "▁erin",
        -479.0
      ],
      [
        "▁gid",
        -480.0
      ],
      [
        "▁sug",
        -481.0
      ],
      [
        "bil",
        -482.0
      ],
      [
        "gun",
        -483.0
      ],
      [
        "▁erim",
        -484.0
      ],
      [
        "dib",
        -485.0
      ],
      [
        "gameš",
        -486.0
      ],
      [
        "▁eridug",
        -487.0
      ],
      [
        "▁sud",
        -488.0
      ],
      [
        "4{{",
        -489.0
      ],
      [
        "▁NI",
        -490.0
      ],
      [
        "ingir",
        -491.0
      ],
      [
        "▁aš",
        -492.0
      ],
      [
        "niĝin",
        -493.0
      ],
      [
        "IS",
        -494.0
      ],
      [
        "gil",
        -495.0
      ],
      [
        "gilgameš",
        -496.0
      ],
      [
        "▁E",
        -497.0
      ],
      [
        "3{{",
        -498.0
      ],
      [
        "▁ug",
        -499.0
      ],
      [
        "mud",
        -500.0
      ],
      [
        "▁2(",
        -501.0
      ],
      [
        "▁lal",
        -502.0
      ],
      [
        "šul",
        -503.0
      ],
      [
        "▁mar",
        -504.0
      ],
      [
        "▁kal",
        -505.0
      ],
      [
        "▁eme",
        -506.0
      ],
      [
        "▁ĝuruš",
        -507.0
      ],
      [
        "MALE",
        -508.0
      ],
      [
        "lamma",
        -509.0
      ],
      [
        "par",
        -510.0
      ],
      [
        "tin",
        -511.0
      ],
      [
        "▁re",
        -512.0
      ],
      [
        "dar",
        -513.0
      ],
      [
        "kuš",
        -514.0
      ],
      [
        "▁H",
        -515.0
      ],
      [
        "▁5",
        -516.0
      ],
      [
        "▁izi",
        -517.0
      ],
      [
        "▁7",
        -518.0
      ],
      [
        "NT",
        -519.0
      ],
      [
        "▁amar",
        -520.0
      ],
      [
        "mur",
        -521.0
      ],
      [
        "▁pu",
        -522.0
      ],
      [
        "PLANT",
        -523.0
      ],
      [
        "▁Š",
        -524.0
      ],
      [
        "▁kul",
        -525.0
      ],
      [
        "eše",
        -526.0
      ],
      [
        "kiri",
        -527.0
      ],
      [
        "▁guru",
        -528.0
      ],
      [
        "pi",
        -529.0
      ],
      [
        "lan",
        -530.0
      ],
      [
        "lem",
        -531.0
      ],
      [
        "▁mul",
        -532.0
      ],
      [
        "▁dingir",
        -533.0
      ],
      [
        "▁numun",
        -534.0
      ],
      [
        "KU",
        -535.0
      ],
      [
        "dirig",
        -536.0
      ],
      [
        "namma",
        -537.0
      ],
      [
        "šumgal",
        -538.0
      ],
      [
        "▁nita",
        -539.0
      ],
      [
        "FIS",
        -540.0
      ],
      [
        "muš",
        -541.0
      ],
      [
        "tab",
        -542.0
      ],
      [
        "FISH",
        -543.0
      ],
      [
        "▁keše",
        -544.0
      ],
      [
        "▁IM",
        -545.0
      ],
      [
        "▁ub",
        -546.0
      ],
      [
        "2-{{",
        -547.0
      ],
      [
        "▁aga",
        -548.0
      ],
      [
        "▁anše",
        -549.0
      ],
      [
        "ĝe",
        -550.0
      ],
      [
        "▁dib",
        -551.0
      ],
      [
        "▁tuš",
        -552.0
      ],
      [
        "▁niĝin",
        -553.0
      ],
      [
        "erin",
        -554.0
      ],
      [
        "AD",
        -555.0
      ],
      [
        "CO",
        -556.0
      ],
      [
        "COP",
        -557.0
      ],
      [
        "aba",
        -558.0
      ],
      [
        "COPPER",
        -559.0
      ],
      [
        "DA",
        -560.0
      ],
      [
        "▁2-",
        -561.0
      ],
      [
        "▁bala",
        -562.0
      ],
      [
        "▁gun",
        -563.0
      ],
      [
        "el",
        -564.0
      ],
      [
        "▁kas",
        -565.0
      ],
      [
        "▁lul",
        -566.0
      ],
      [
        "dru",
        -567.0
      ],
      [
        "▁MA",
        -568.0
      ],
      [
        "GAR",
        -569.0
      ],
      [
        "▁ĝen",
        -570.0
      ],
      [
        "14",
        -571.0
      ],
      [
        "ug",
        -572.0
      ],
      [
        "bulu",
        -573.0
      ],
      [
        "▁galam",
        -574.0
      ],
      [
        "dil",
        -575.0
      ],
      [
        "sir",
        -576.0
      ],
      [
        "šen",
        -577.0
      ],
      [
        "degx",
        -578.0
      ],
      [
        "▁ban",
        -579.0
      ],
      [
        "▁geš",
        -580.0
      ],
      [
        "▁laga",
        -581.0
      ],
      [
        "▁dugud",
        -582.0
      ],
      [
        "tta",
        -583.0
      ],
      [
        "▁ar",
        -584.0
      ],
      [
        "▁kan",
        -585.0
      ],
      [
        "▁alan",
        -586.0
      ],
      [
        "▁aratta",
        -587.0
      ],
      [
        "NU",
        -588.0
      ],
      [
        "▁KU",
        -589.0
      ],
      [
        "▁dal",
        -590.0
      ],
      [
        "▁gen",
        -591.0
      ],
      [
        "nanše",
        -592.0
      ],
      [
        "▁ge",
        -593.0
      ],
      [
        "▁kiš",
        -594.0
      ],
      [
        "▁egir",
        -595.0
      ],
      [
        "▁zalag",
        -596.0
      ],
      [
        "RE",
        -597.0
      ],
      [
        "▁sun",
        -598.0
      ],
      [
        "▁gana",
        -599.0
      ],
      [
        "2.",
        -600.0
      ],
      [
        "kim",
        -601.0
      ],
      [
        "▁TU",
        -602.0
      ],
      [
        "limmu",
        -603.0
      ],
      [
        "▁siki",
        -604.0
      ],
      [
        "KI",
        -605.0
      ],
      [
        "▁4",
        -606.0
      ],
      [
        "▁KI",
        -607.0
      ],
      [
        "▁lagaš",
        -608.0
      ],
      [
        "▁Z",
        -609.0
      ],
      [
        "kin",
        -610.0
      ],
      [
        "nna",
        -611.0
      ],
      [
        "it",
        -612.0
      ],
      [
        "suh",
        -613.0
      ],
      [
        "▁peš",
        -614.0
      ],
      [
        "▁kaskal",
        -615.0
      ],
      [
        "2{",
        -616.0
      ],
      [
        "CL",
        -617.0
      ],
      [
        "OT",
        -618.0
      ],
      [
        "OTH",
        -619.0
      ],
      [
        "uri",
        -620.0
      ],
      [
        "CLOTH",
        -621.0
      ],
      [
        "▁tukum",
        -622.0
      ],
      [
        "00",
        -623.0
      ],
      [
        "▁šen",
        -624.0
      ],
      [
        "EN",
        -625.0
      ],
      [
        "hi",
        -626.0
      ],
      [
        "▁7-",
        -627.0
      ],
      [
        "▁šub",
        -628.0
      ],
      [
        "PA",
        -629.0
      ],
      [
        "▁ĝir",
        -630.0
      ],
      [
        "13-",
        -631.0
      ],
      [
        "maš",
        -632.0
      ],
      [
        "peš",
        -633.0
      ],
      [
        "▁keš",
        -634.0
      ],
      [
        "DIŠ",
        -635.0
      ],
      [
        "uru",
        -636.0
      ],
      [
        "▁men",
        -637.0
      ],
      [
        "eĝ",
        -638.0
      ],
      [
        "▁zal",
        -639.0
      ],
      [
        "iškur",
        -640.0
      ],
      [
        "ED",
        -641.0
      ],
      [
        "REED",
        -642.0
      ],
      [
        "▁lil",
        -643.0
      ],
      [
        "▁šudu",
        -644.0
      ],
      [
        "▁suhuš",
        -645.0
      ],
      [
        "▁6",
        -646.0
      ],
      [
        "▁buru",
        -647.0
      ],
      [
        "▁kun",
        -648.0
      ],
      [
        "TU",
        -649.0
      ],
      [
        "kiš",
        -650.0
      ],
      [
        "teĝ",
        -651.0
      ],
      [
        "tim",
        -652.0
      ],
      [
        "▁har",
        -653.0
      ],
      [
        "▁itid",
        -654.0
      ],
      [
        "IM",
        -655.0
      ],
      [
        "▁GI",
        -656.0
      ],
      [
        "▁usu",
        -657.0
      ],
      [
        "lal",
        -658.0
      ],
      [
        "min",
        -659.0
      ],
      [
        "▁ez",
        -660.0
      ],
      [
        "▁kud",
        -661.0
      ],
      [
        "▁1-",
        -662.0
      ],
      [
        "▁3(",
        -663.0
      ],
      [
        "bura",
        -664.0
      ],
      [
        "keše",
        -665.0
      ],
      [
        "dig",
        -666.0
      ],
      [
        "▁gan",
        -667.0
      ],
      [
        "din",
        -668.0
      ],
      [
        "gam",
        -669.0
      ],
      [
        "lib",
        -670.0
      ],
      [
        "▁tab",
        -671.0
      ],
      [
        "digna",
        -672.0
      ],
      [
        "▁ĝidru",
        -673.0
      ],
      [
        "IN",
        -674.0
      ],
      [
        "|)-",
        -675.0
      ],
      [
        "šur",
        -676.0
      ],
      [
        "▁BA",
        -677.0
      ],
      [
        "▁tag",
        -678.0
      ],
      [
        "sumun",
        -679.0
      ],
      [
        "idigna",
        -680.0
      ],
      [
        "IG",
        -681.0
      ],
      [
        "MU",
        -682.0
      ],
      [
        "huš",
        -683.0
      ],
      [
        "▁mur",
        -684.0
      ],
      [
        "▁nim",
        -685.0
      ],
      [
        "▁limmu",
        -686.0
      ],
      [
        "AN",
        -687.0
      ],
      [
        "▁naĝ",
        -688.0
      ],
      [
        "▁sipa",
        -689.0
      ],
      [
        "▁nitalam",
        -690.0
      ],
      [
        "13",
        -691.0
      ],
      [
        "3{",
        -692.0
      ],
      [
        "DEN",
        -693.0
      ],
      [
        "nisa",
        -694.0
      ],
      [
        "inanna",
        -695.0
      ],
      [
        "nisaba",
        -696.0
      ],
      [
        "bad",
        -697.0
      ],
      [
        "rin",
        -698.0
      ],
      [
        "▁sur",
        -699.0
      ],
      [
        "ninnu",
        -700.0
      ],
      [
        "GARDEN",
        -701.0
      ],
      [
        "▁kisal",
        -702.0
      ],
      [
        "▁ir",
        -703.0
      ],
      [
        "▁šim",
        -704.0
      ],
      [
        "▁babbar",
        -705.0
      ],
      [
        "21",
        -706.0
      ],
      [
        "GAL",
        -707.0
      ],
      [
        "rsa",
        -708.0
      ],
      [
        "▁larsa",
        -709.0
      ],
      [
        "2}",
        -710.0
      ],
      [
        "ON",
        -711.0
      ],
      [
        "15-",
        -712.0
      ],
      [
        "16-",
        -713.0
      ],
      [
        "lah",
        -714.0
      ],
      [
        "naĝ",
        -715.0
      ],
      [
        "▁UD",
        -716.0
      ],
      [
        "▁elam",
        -717.0
      ],
      [
        "▁dadag",
        -718.0
      ],
      [
        "▁engar",
        -719.0
      ],
      [
        "▁sumun",
        -720.0
      ],
      [
        "buluĝ",
        -721.0
      ],
      [
        "▁dalla",
        -722.0
      ],
      [
        "▁degx",
        -723.0
      ],
      [
        "▁nar",
        -724.0
      ],
      [
        "▁sar",
        -725.0
      ],
      [
        "barag",
        -726.0
      ],
      [
        "▁ušumgal",
        -727.0
      ],
      [
        "14-",
        -728.0
      ],
      [
        "▁NA",
        -729.0
      ],
      [
        "▁muru",
        -730.0
      ],
      [
        "taka",
        -731.0
      ],
      [
        "▁dul",
        -732.0
      ],
      [
        "GU",
        -733.0
      ],
      [
        "SU",
        -734.0
      ],
      [
        "ad",
        -735.0
      ],
      [
        "zkur",
        -736.0
      ],
      [
        "▁geme",
        -737.0
      ],
      [
        "▁ugnim",
        -738.0
      ],
      [
        "▁sizkur",
        -739.0
      ],
      [
        "15",
        -740.0
      ],
      [
        "ia",
        -741.0
      ],
      [
        "dba",
        -742.0
      ],
      [
        "lul",
        -743.0
      ],
      [
        "ner",
        -744.0
      ],
      [
        "nergal",
        -745.0
      ],
      [
        "▁nidba",
        -746.0
      ],
      [
        "gaz",
        -747.0
      ],
      [
        "▁iš",
        -748.0
      ],
      [
        "diĝir",
        -749.0
      ],
      [
        "▁šita",
        -750.0
      ],
      [
        "▁gibil",
        -751.0
      ],
      [
        "▁kurun",
        -752.0
      ],
      [
        "ama",
        -753.0
      ],
      [
        "zud",
        -754.0
      ],
      [
        "bala",
        -755.0
      ],
      [
        "isin",
        -756.0
      ],
      [
        "at",
        -757.0
      ],
      [
        "SON",
        -758.0
      ],
      [
        "rah",
        -759.0
      ],
      [
        "▁UR",
        -760.0
      ],
      [
        "PERSON",
        -761.0
      ],
      [
        "▁ambar",
        -762.0
      ],
      [
        "▁LU",
        -763.0
      ],
      [
        "▁umma",
        -764.0
      ],
      [
        "buranun",
        -765.0
      ],
      [
        "ken",
        -766.0
      ],
      [
        "inim",
        -767.0
      ],
      [
        "▁ĝarza",
        -768.0
      ],
      [
        "26",
        -769.0
      ],
      [
        "numun",
        -770.0
      ],
      [
        "hal",
        -771.0
      ],
      [
        "zag",
        -772.0
      ],
      [
        "▁tir",
        -773.0
      ],
      [
        "▁eridu",
        -774.0
      ],
      [
        "▁ĝiškim",
        -775.0
      ],
      [
        "NA",
        -776.0
      ],
      [
        "▁R",
        -777.0
      ],
      [
        "ssu",
        -778.0
      ],
      [
        "▁4(",
        -779.0
      ],
      [
        "▁gam",
        -780.0
      ],
      [
        "▁kin",
        -781.0
      ],
      [
        "▁ĝeštin",
        -782.0
      ],
      [
        "LI",
        -783.0
      ],
      [
        "dal",
        -784.0
      ],
      [
        "mul",
        -785.0
      ],
      [
        "emen",
        -786.0
      ],
      [
        "▁suhur",
        -787.0
      ],
      [
        "▁temen",
        -788.0
      ],
      [
        "▁DA",
        -789.0
      ],
      [
        "▁ru",
        -790.0
      ],
      [
        "▁gir",
        -791.0
      ],
      [
        "▁sed",
        -792.0
      ],
      [
        "munus",
        -793.0
      ],
      [
        "teš",
        -794.0
      ],
      [
        "šeĝ",
        -795.0
      ],
      [
        "▁RI",
        -796.0
      ],
      [
        "dili",
        -797.0
      ],
      [
        "▁ezen",
        -798.0
      ],
      [
        "▁kala",
        -799.0
      ],
      [
        "▁ĝissu",
        -800.0
      ],
      [
        "GIR",
        -801.0
      ],
      [
        "▁3-",
        -802.0
      ],
      [
        "▁7(",
        -803.0
      ],
      [
        "▁gar",
        -804.0
      ],
      [
        "▁kad",
        -805.0
      ],
      [
        "▁anzud",
        -806.0
      ],
      [
        "ušumgal",
        -807.0
      ],
      [
        "gug",
        -808.0
      ],
      [
        "kir",
        -809.0
      ],
      [
        "▁eg",
        -810.0
      ],
      [
        "▁kiri",
        -811.0
      ],
      [
        "▁šuba",
        -812.0
      ],
      [
        "16",
        -813.0
      ],
      [
        "ap",
        -814.0
      ],
      [
        "gag",
        -815.0
      ],
      [
        "tub",
        -816.0
      ],
      [
        "šeš",
        -817.0
      ],
      [
        "▁4-",
        -818.0
      ],
      [
        "▁BI",
        -819.0
      ],
      [
        "▁TA",
        -820.0
      ],
      [
        "▁min",
        -821.0
      ],
      [
        "▁rib",
        -822.0
      ],
      [
        "▁rig",
        -823.0
      ],
      [
        "bin",
        -824.0
      ],
      [
        "dun",
        -825.0
      ],
      [
        "kul",
        -826.0
      ],
      [
        "anše",
        -827.0
      ],
      [
        "sipad",
        -828.0
      ],
      [
        "▁tigi",
        -829.0
      ],
      [
        "ĝeštin",
        -830.0
      ],
      [
        "duh",
        -831.0
      ],
      [
        "huĝ",
        -832.0
      ],
      [
        "tir",
        -833.0
      ],
      [
        "▁5(",
        -834.0
      ],
      [
        "▁LA",
        -835.0
      ],
      [
        "gina",
        -836.0
      ],
      [
        "▁zar",
        -837.0
      ],
      [
        "▁šeĝ",
        -838.0
      ],
      [
        "gigir",
        -839.0
      ],
      [
        "▁arhuš",
        -840.0
      ],
      [
        "2)",
        -841.0
      ],
      [
        "ah",
        -842.0
      ],
      [
        "nuz",
        -843.0
      ],
      [
        "▁dil",
        -844.0
      ],
      [
        "▁teĝ",
        -845.0
      ],
      [
        "▁šem",
        -846.0
      ],
      [
        "NI",
        -847.0
      ],
      [
        "uĝ",
        -848.0
      ],
      [
        "isi",
        -849.0
      ],
      [
        "edin",
        -850.0
      ],
      [
        "▁unken",
        -851.0
      ],
      [
        "▁šagina",
        -852.0
      ],
      [
        "▁5-",
        -853.0
      ],
      [
        "ilig",
        -854.0
      ],
      [
        "▁dar",
        -855.0
      ],
      [
        "▁gin",
        -856.0
      ],
      [
        "daĝal",
        -857.0
      ],
      [
        "nuska",
        -858.0
      ],
      [
        "zalag",
        -859.0
      ],
      [
        "▁sumur",
        -860.0
      ],
      [
        "▁umbin",
        -861.0
      ],
      [
        "▁dilmun",
        -862.0
      ],
      [
        "-|",
        -863.0
      ],
      [
        "2×",
        -864.0
      ],
      [
        "▁HI",
        -865.0
      ],
      [
        "▁SU",
        -866.0
      ],
      [
        "sila",
        -867.0
      ],
      [
        "▁giĝ",
        -868.0
      ],
      [
        "▁ulu",
        -869.0
      ],
      [
        "▁uzu",
        -870.0
      ],
      [
        "▁šaĝa",
        -871.0
      ],
      [
        "▁kilib",
        -872.0
      ],
      [
        "▁nunuz",
        -873.0
      ],
      [
        "▁zabar",
        -874.0
      ],
      [
        "▁hal",
        -875.0
      ],
      [
        "▁mir",
        -876.0
      ],
      [
        "▁umuš",
        -877.0
      ],
      [
        "▁gurun",
        -878.0
      ],
      [
        "▁nitah",
        -879.0
      ],
      [
        "9}",
        -880.0
      ],
      [
        "AB",
        -881.0
      ],
      [
        "ME",
        -882.0
      ],
      [
        "ZI",
        -883.0
      ],
      [
        "ezi",
        -884.0
      ],
      [
        "rum",
        -885.0
      ],
      [
        "▁50",
        -886.0
      ],
      [
        "▁AB",
        -887.0
      ],
      [
        "▁šid",
        -888.0
      ],
      [
        "ezina",
        -889.0
      ],
      [
        "▁GAR",
        -890.0
      ],
      [
        "▁gab",
        -891.0
      ],
      [
        "▁sal",
        -892.0
      ],
      [
        "▁diri",
        -893.0
      ],
      [
        "▁gada",
        -894.0
      ],
      [
        "▁ugula",
        -895.0
      ],
      [
        "AŠ",
        -896.0
      ],
      [
        "piš",
        -897.0
      ],
      [
        "▁SA",
        -898.0
      ],
      [
        "ĝiri",
        -899.0
      ],
      [
        "▁šah",
        -900.0
      ],
      [
        "kalag",
        -901.0
      ],
      [
        "šubur",
        -902.0
      ],
      [
        "▁urud",
        -903.0
      ],
      [
        "uh",
        -904.0
      ],
      [
        "ssa",
        -905.0
      ],
      [
        "šim",
        -906.0
      ],
      [
        "▁NU",
        -907.0
      ],
      [
        "▁SI",
        -908.0
      ],
      [
        "▁TUG",
        -909.0
      ],
      [
        "▁eden",
        -910.0
      ],
      [
        "▁imin",
        -911.0
      ],
      [
        "▁balaĝ",
        -912.0
      ],
      [
        "pu",
        -913.0
      ],
      [
        "HAR",
        -914.0
      ],
      [
        "SIG",
        -915.0
      ],
      [
        "guru",
        -916.0
      ],
      [
        "gibil",
        -917.0
      ],
      [
        "šakir",
        -918.0
      ],
      [
        "nimbar",
        -919.0
      ],
      [
        "▁lipiš",
        -920.0
      ],
      [
        "HI",
        -921.0
      ],
      [
        "ut",
        -922.0
      ],
      [
        "ula",
        -923.0
      ],
      [
        "zur",
        -924.0
      ],
      [
        "▁ZI",
        -925.0
      ],
      [
        "gana",
        -926.0
      ],
      [
        "zzal",
        -927.0
      ],
      [
        "▁diš",
        -928.0
      ],
      [
        "▁haš",
        -929.0
      ],
      [
        "galam",
        -930.0
      ],
      [
        "▁ubur",
        -931.0
      ],
      [
        "banšur",
        -932.0
      ],
      [
        "▁abula",
        -933.0
      ],
      [
        "kaš",
        -934.0
      ],
      [
        "run",
        -935.0
      ],
      [
        "taš",
        -936.0
      ],
      [
        "▁ŠE",
        -937.0
      ],
      [
        "silig",
        -938.0
      ],
      [
        "▁ĝizzal",
        -939.0
      ],
      [
        "▁q",
        -940.0
      ],
      [
        "GAB",
        -941.0
      ],
      [
        "dum",
        -942.0
      ],
      [
        "}}{{",
        -943.0
      ],
      [
        "šara",
        -944.0
      ],
      [
        "▁lah",
        -945.0
      ],
      [
        "▁mud",
        -946.0
      ],
      [
        "▁agrun",
        -947.0
      ],
      [
        "MEŠ",
        -948.0
      ],
      [
        "nud",
        -949.0
      ],
      [
        "šid",
        -950.0
      ],
      [
        "▁UN",
        -951.0
      ],
      [
        "▁be",
        -952.0
      ],
      [
        "apin",
        -953.0
      ],
      [
        "▁dag",
        -954.0
      ],
      [
        "karin",
        -955.0
      ],
      [
        "isimud",
        -956.0
      ],
      [
        "KAL",
        -957.0
      ],
      [
        "ZEN",
        -958.0
      ],
      [
        "šak",
        -959.0
      ],
      [
        "▁RA",
        -960.0
      ],
      [
        "▁ŠU",
        -961.0
      ],
      [
        "▁IGI",
        -962.0
      ],
      [
        "▁MAŠ",
        -963.0
      ],
      [
        "sakar",
        -964.0
      ],
      [
        "▁abul",
        -965.0
      ],
      [
        "▁gala",
        -966.0
      ],
      [
        "▁dagal",
        -967.0
      ],
      [
        "▁libir",
        -968.0
      ],
      [
        "▁nesaĝ",
        -969.0
      ],
      [
        "▁sukud",
        -970.0
      ],
      [
        "taškarin",
        -971.0
      ],
      [
        "MIN",
        -972.0
      ],
      [
        "bila",
        -973.0
      ],
      [
        "▁BAD",
        -974.0
      ],
      [
        "▁HAR",
        -975.0
      ],
      [
        "▁dun",
        -976.0
      ],
      [
        "▁lum",
        -977.0
      ],
      [
        "banda",
        -978.0
      ],
      [
        "▁ušum",
        -979.0
      ],
      [
        "▁kadra",
        -980.0
      ],
      [
        "UD",
        -981.0
      ],
      [
        "BAD",
        -982.0
      ],
      [
        "▁PA",
        -983.0
      ],
      [
        "▁UŠ",
        -984.0
      ],
      [
        "▁pe",
        -985.0
      ],
      [
        "usan",
        -986.0
      ],
      [
        "šita",
        -987.0
      ],
      [
        "▁adab",
        -988.0
      ],
      [
        "▁ibila",
        -989.0
      ],
      [
        "-{",
        -990.0
      ],
      [
        "▁9",
        -991.0
      ],
      [
        "2-{",
        -992.0
      ],
      [
        "2|)",
        -993.0
      ],
      [
        "NUS",
        -994.0
      ],
      [
        "tal",
        -995.0
      ],
      [
        "NGIR",
        -996.0
      ],
      [
        "▁kišib",
        -997.0
      ],
      [
        "bun",
        -998.0
      ],
      [
        "kan",
        -999.0
      ],
      [
        "▁10",
        -1000.0
      ],
      [
        "eštub",
        -1001.0
      ],
      [
        "▁gara",
        -1002.0
      ],
      [
        "▁buluĝ",
        -1003.0
      ],
      [
        "▁ĝalga",
        -1004.0
      ],
      [
        "BU",
        -1005.0
      ],
      [
        "kum",
        -1006.0
      ],
      [
        "zil",
        -1007.0
      ],
      [
        "▁eĝ",
        -1008.0
      ],
      [
        "▁uz",
        -1009.0
      ],
      [
        "LUGAL",
        -1010.0
      ],
      [
        "balam",
        -1011.0
      ],
      [
        "ninda",
        -1012.0
      ],
      [
        "▁niga",
        -1013.0
      ],
      [
        "▁taka",
        -1014.0
      ],
      [
        "▁ukur",
        -1015.0
      ],
      [
        "▁murub",
        -1016.0
      ],
      [
        "3.",
        -1017.0
      ],
      [
        "SI",
        -1018.0
      ],
      [
        "az",
        -1019.0
      ],
      [
        "URU",
        -1020.0
      ],
      [
        "bul",
        -1021.0
      ],
      [
        "▁BU",
        -1022.0
      ],
      [
        "▁huĝ",
        -1023.0
      ],
      [
        "bulug",
        -1024.0
      ],
      [
        "▁šibir",
        -1025.0
      ],
      [
        "3}",
        -1026.0
      ],
      [
        "TUR",
        -1027.0
      ],
      [
        "tam",
        -1028.0
      ],
      [
        "▁6-",
        -1029.0
      ],
      [
        "gaba",
        -1030.0
      ],
      [
        "▁DIM",
        -1031.0
      ],
      [
        "▁meš",
        -1032.0
      ],
      [
        "▁tam",
        -1033.0
      ],
      [
        "▁duru",
        -1034.0
      ],
      [
        "▁murgu",
        -1035.0
      ],
      [
        "▁šukur",
        -1036.0
      ],
      [
        "▁zabalam",
        -1037.0
      ],
      [
        "AG",
        -1038.0
      ],
      [
        "ŠU",
        -1039.0
      ],
      [
        "GIŠ",
        -1040.0
      ],
      [
        "haš",
        -1041.0
      ],
      [
        "▁GU",
        -1042.0
      ],
      [
        "gara",
        -1043.0
      ],
      [
        "ĝidru",
        -1044.0
      ],
      [
        "▁alam",
        -1045.0
      ],
      [
        "hen",
        -1046.0
      ],
      [
        "rab",
        -1047.0
      ],
      [
        "▁ZU",
        -1048.0
      ],
      [
        "▁50-",
        -1049.0
      ],
      [
        "LAGAB",
        -1050.0
      ],
      [
        "BA",
        -1051.0
      ],
      [
        "pp",
        -1052.0
      ],
      [
        "sun",
        -1053.0
      ],
      [
        "tak",
        -1054.0
      ],
      [
        "▁TE",
        -1055.0
      ],
      [
        "anga",
        -1056.0
      ],
      [
        "giri",
        -1057.0
      ],
      [
        "udug",
        -1058.0
      ],
      [
        "šuba",
        -1059.0
      ],
      [
        "▁gaz",
        -1060.0
      ],
      [
        "▁sis",
        -1061.0
      ],
      [
        "▁engur",
        -1062.0
      ],
      [
        "▁mussa",
        -1063.0
      ],
      [
        "2|",
        -1064.0
      ],
      [
        "uk",
        -1065.0
      ],
      [
        "sed",
        -1066.0
      ],
      [
        "sub",
        -1067.0
      ],
      [
        "▁36",
        -1068.0
      ],
      [
        "▁UL",
        -1069.0
      ],
      [
        "▁eĝer",
        -1070.0
      ],
      [
        "▁urin",
        -1071.0
      ],
      [
        "7{",
        -1072.0
      ],
      [
        "BI",
        -1073.0
      ],
      [
        "3}-",
        -1074.0
      ],
      [
        "KID",
        -1075.0
      ],
      [
        "hun",
        -1076.0
      ],
      [
        "igi",
        -1077.0
      ],
      [
        "keš",
        -1078.0
      ],
      [
        "|{{",
        -1079.0
      ],
      [
        "▁EN",
        -1080.0
      ],
      [
        "▁HA",
        -1081.0
      ],
      [
        "EZEN",
        -1082.0
      ],
      [
        "▁TAR",
        -1083.0
      ],
      [
        "▁mun",
        -1084.0
      ],
      [
        "▁bulug",
        -1085.0
      ],
      [
        "▁geštu",
        -1086.0
      ],
      [
        "▁nundum",
        -1087.0
      ],
      [
        "ĝišnimbar",
        -1088.0
      ],
      [
        "2@",
        -1089.0
      ],
      [
        "is",
        -1090.0
      ],
      [
        "iz",
        -1091.0
      ],
      [
        "ŠE",
        -1092.0
      ],
      [
        "▁P",
        -1093.0
      ],
      [
        "▁n",
        -1094.0
      ],
      [
        "IGI",
        -1095.0
      ],
      [
        "NUN",
        -1096.0
      ],
      [
        "dir",
        -1097.0
      ],
      [
        "mug",
        -1098.0
      ],
      [
        "ten",
        -1099.0
      ],
      [
        "▁6(",
        -1100.0
      ],
      [
        "▁ZA",
        -1101.0
      ],
      [
        "egir",
        -1102.0
      ],
      [
        "gada",
        -1103.0
      ],
      [
        "▁SAR",
        -1104.0
      ],
      [
        "▁mas",
        -1105.0
      ],
      [
        "▁idim",
        -1106.0
      ],
      [
        "▁naĝa",
        -1107.0
      ],
      [
        "hendur",
        -1108.0
      ],
      [
        "▁gidim",
        -1109.0
      ],
      [
        "RU",
        -1110.0
      ],
      [
        "se",
        -1111.0
      ],
      [
        "▁8",
        -1112.0
      ],
      [
        "21-",
        -1113.0
      ],
      [
        "bih",
        -1114.0
      ],
      [
        "}}|",
        -1115.0
      ],
      [
        "▁LI",
        -1116.0
      ],
      [
        "▁MI",
        -1117.0
      ],
      [
        "imma",
        -1118.0
      ],
      [
        "uraš",
        -1119.0
      ],
      [
        "▁duh",
        -1120.0
      ],
      [
        "▁uga",
        -1121.0
      ],
      [
        "gurum",
        -1122.0
      ],
      [
        "ummud",
        -1123.0
      ],
      [
        "▁ezem",
        -1124.0
      ],
      [
        "▁maškim",
        -1125.0
      ],
      [
        "▁ulutim",
        -1126.0
      ],
      [
        "▁nindaba",
        -1127.0
      ],
      [
        "id",
        -1128.0
      ],
      [
        "ik",
        -1129.0
      ],
      [
        "RAD",
        -1130.0
      ],
      [
        "duk",
        -1131.0
      ],
      [
        "esi",
        -1132.0
      ],
      [
        "šuš",
        -1133.0
      ],
      [
        "▁30",
        -1134.0
      ],
      [
        "amar",
        -1135.0
      ],
      [
        "kkul",
        -1136.0
      ],
      [
        "▁TUR",
        -1137.0
      ],
      [
        "▁gug",
        -1138.0
      ],
      [
        "▁hub",
        -1139.0
      ],
      [
        "▁lib",
        -1140.0
      ],
      [
        "▁luh",
        -1141.0
      ],
      [
        "▁ARAD",
        -1142.0
      ],
      [
        "marduk",
        -1143.0
      ],
      [
        "▁asila",
        -1144.0
      ],
      [
        "▁dungu",
        -1145.0
      ],
      [
        "▁lukur",
        -1146.0
      ],
      [
        "▁sanga",
        -1147.0
      ],
      [
        "AL",
        -1148.0
      ],
      [
        "ID",
        -1149.0
      ],
      [
        "qa",
        -1150.0
      ],
      [
        "ara",
        -1151.0
      ],
      [
        "udu",
        -1152.0
      ],
      [
        "udx",
        -1153.0
      ],
      [
        "zer",
        -1154.0
      ],
      [
        "▁ME",
        -1155.0
      ],
      [
        "▁šuru",
        -1156.0
      ],
      [
        "▁palil",
        -1157.0
      ],
      [
        "▁puzur",
        -1158.0
      ],
      [
        "MAR",
        -1159.0
      ],
      [
        "kid",
        -1160.0
      ],
      [
        "mir",
        -1161.0
      ],
      [
        "ran",
        -1162.0
      ],
      [
        "bira",
        -1163.0
      ],
      [
        "ereš",
        -1164.0
      ],
      [
        "išta",
        -1165.0
      ],
      [
        "ppag",
        -1166.0
      ],
      [
        "tumu",
        -1167.0
      ],
      [
        "▁KAL",
        -1168.0
      ],
      [
        "▁bir",
        -1169.0
      ],
      [
        "▁hab",
        -1170.0
      ],
      [
        "▁tul",
        -1171.0
      ],
      [
        "šukur",
        -1172.0
      ],
      [
        "▁GANA",
        -1173.0
      ],
      [
        "▁išib",
        -1174.0
      ],
      [
        "▁umun",
        -1175.0
      ],
      [
        "▁MUNUS",
        -1176.0
      ],
      [
        "▁tarah",
        -1177.0
      ],
      [
        "ištaran",
        -1178.0
      ],
      [
        "▁šuruppag",
        -1179.0
      ],
      [
        "ip",
        -1180.0
      ],
      [
        "21{",
        -1181.0
      ],
      [
        "lar",
        -1182.0
      ],
      [
        "man",
        -1183.0
      ],
      [
        "▁15",
        -1184.0
      ],
      [
        "▁HU",
        -1185.0
      ],
      [
        "▁ia",
        -1186.0
      ],
      [
        "abzu",
        -1187.0
      ],
      [
        "dusu",
        -1188.0
      ],
      [
        "eren",
        -1189.0
      ],
      [
        "škur",
        -1190.0
      ],
      [
        "▁GAN",
        -1191.0
      ],
      [
        "▁šab",
        -1192.0
      ],
      [
        "dingir",
        -1193.0
      ],
      [
        "▁LUGAL",
        -1194.0
      ],
      [
        "▁nisig",
        -1195.0
      ],
      [
        "▁niĝir",
        -1196.0
      ],
      [
        "▁urudu",
        -1197.0
      ],
      [
        "▁larsam",
        -1198.0
      ],
      [
        "▁siškur",
        -1199.0
      ],
      [
        "▁tukumbi",
        -1200.0
      ],
      [
        "pe",
        -1201.0
      ],
      [
        "SAR",
        -1202.0
      ],
      [
        "iri",
        -1203.0
      ],
      [
        "ugu",
        -1204.0
      ],
      [
        "šin",
        -1205.0
      ],
      [
        "šir",
        -1206.0
      ],
      [
        "▁12",
        -1207.0
      ],
      [
        "▁IN",
        -1208.0
      ],
      [
        "▁bu",
        -1209.0
      ],
      [
        "duru",
        -1210.0
      ],
      [
        "laga",
        -1211.0
      ],
      [
        "▁did",
        -1212.0
      ],
      [
        "▁hen",
        -1213.0
      ],
      [
        "▁lag",
        -1214.0
      ],
      [
        "▁tah",
        -1215.0
      ],
      [
        "▁šud",
        -1216.0
      ],
      [
        "šudul",
        -1217.0
      ],
      [
        "▁ereš",
        -1218.0
      ],
      [
        "▁banda",
        -1219.0
      ],
      [
        "▁šembi",
        -1220.0
      ],
      [
        "▁DINGIR",
        -1221.0
      ],
      [
        "RA",
        -1222.0
      ],
      [
        "6{{",
        -1223.0
      ],
      [
        "nar",
        -1224.0
      ],
      [
        "raš",
        -1225.0
      ],
      [
        "sil",
        -1226.0
      ],
      [
        "zuh",
        -1227.0
      ],
      [
        "▁AŠ",
        -1228.0
      ],
      [
        "▁RU",
        -1229.0
      ],
      [
        "▁TI",
        -1230.0
      ],
      [
        "▁is",
        -1231.0
      ],
      [
        "12{{",
        -1232.0
      ],
      [
        "alan",
        -1233.0
      ],
      [
        "alim",
        -1234.0
      ],
      [
        "asal",
        -1235.0
      ],
      [
        "asar",
        -1236.0
      ],
      [
        "išib",
        -1237.0
      ],
      [
        "nuna",
        -1238.0
      ],
      [
        "▁TUM",
        -1239.0
      ],
      [
        "▁3600",
        -1240.0
      ],
      [
        "▁ebih",
        -1241.0
      ],
      [
        "▁didli",
        -1242.0
      ],
      [
        "▁emeda",
        -1243.0
      ],
      [
        "▁ganba",
        -1244.0
      ],
      [
        "▁šubur",
        -1245.0
      ],
      [
        "▁banšur",
        -1246.0
      ],
      [
        "buranuna",
        -1247.0
      ],
      [
        "3)",
        -1248.0
      ],
      [
        "TE",
        -1249.0
      ],
      [
        "2|-",
        -1250.0
      ],
      [
        "GUR",
        -1251.0
      ],
      [
        "TUG",
        -1252.0
      ],
      [
        "hab",
        -1253.0
      ],
      [
        "izi",
        -1254.0
      ],
      [
        "}{{",
        -1255.0
      ],
      [
        "šam",
        -1256.0
      ],
      [
        "4-{{",
        -1257.0
      ],
      [
        "▁10-",
        -1258.0
      ],
      [
        "▁MUŠ",
        -1259.0
      ],
      [
        "▁dan",
        -1260.0
      ],
      [
        "▁kab",
        -1261.0
      ],
      [
        "▁sim",
        -1262.0
      ],
      [
        "▁šur",
        -1263.0
      ],
      [
        "dadag",
        -1264.0
      ],
      [
        "ĝuruš",
        -1265.0
      ],
      [
        "▁itud",
        -1266.0
      ],
      [
        "hašhur",
        -1267.0
      ],
      [
        "šakkan",
        -1268.0
      ],
      [
        "▁eštub",
        -1269.0
      ],
      [
        "▁guruš",
        -1270.0
      ],
      [
        "▁lirum",
        -1271.0
      ],
      [
        "▁saman",
        -1272.0
      ],
      [
        "▁saĝĝa",
        -1273.0
      ],
      [
        "▁šilam",
        -1274.0
      ],
      [
        "▁ešgiri",
        -1275.0
      ],
      [
        "UM",
        -1276.0
      ],
      [
        "qi",
        -1277.0
      ],
      [
        "qu",
        -1278.0
      ],
      [
        "uz",
        -1279.0
      ],
      [
        "KUR",
        -1280.0
      ],
      [
        "MUŠ",
        -1281.0
      ],
      [
        "nig",
        -1282.0
      ],
      [
        "▁at",
        -1283.0
      ],
      [
        "dara",
        -1284.0
      ],
      [
        "ilar",
        -1285.0
      ],
      [
        "▁DUB",
        -1286.0
      ],
      [
        "▁GIŠ",
        -1287.0
      ],
      [
        "▁KUR",
        -1288.0
      ],
      [
        "▁tun",
        -1289.0
      ],
      [
        "▁ŠEŠ",
        -1290.0
      ],
      [
        "▁šer",
        -1291.0
      ],
      [
        "bilim",
        -1292.0
      ],
      [
        "dugud",
        -1293.0
      ],
      [
        "ellag",
        -1294.0
      ],
      [
        "kilim",
        -1295.0
      ],
      [
        "nitah",
        -1296.0
      ],
      [
        "▁munu",
        -1297.0
      ],
      [
        "tibira",
        -1298.0
      ],
      [
        "▁danna",
        -1299.0
      ],
      [
        "▁nagar",
        -1300.0
      ],
      [
        "▁henbur",
        -1301.0
      ],
      [
        "▁babilim",
        -1302.0
      ],
      [
        "ZA",
        -1303.0
      ],
      [
        "2)-",
        -1304.0
      ],
      [
        "LAM",
        -1305.0
      ],
      [
        "LIL",
        -1306.0
      ],
      [
        "MAŠ",
        -1307.0
      ],
      [
        "UTU",
        -1308.0
      ],
      [
        "tun",
        -1309.0
      ],
      [
        "▁eb",
        -1310.0
      ],
      [
        "IRIG",
        -1311.0
      ],
      [
        "kiši",
        -1312.0
      ],
      [
        "pala",
        -1313.0
      ],
      [
        "rara",
        -1314.0
      ],
      [
        "siki",
        -1315.0
      ],
      [
        "|){{",
        -1316.0
      ],
      [
        "▁ina",
        -1317.0
      ],
      [
        "▁pap",
        -1318.0
      ],
      [
        "▁utu",
        -1319.0
      ],
      [
        "addir",
        -1320.0
      ],
      [
        "engur",
        -1321.0
      ],
      [
        "▁alim",
        -1322.0
      ],
      [
        "▁asil",
        -1323.0
      ],
      [
        "▁ašag",
        -1324.0
      ],
      [
        "kinkin",
        -1325.0
      ],
      [
        "▁itima",
        -1326.0
      ],
      [
        "▁kurum",
        -1327.0
      ],
      [
        "iq",
        -1328.0
      ],
      [
        "HUR",
        -1329.0
      ],
      [
        "SAL",
        -1330.0
      ],
      [
        "mes",
        -1331.0
      ],
      [
        "sik",
        -1332.0
      ],
      [
        "ŠEŠ",
        -1333.0
      ],
      [
        "▁qa",
        -1334.0
      ],
      [
        "▁se",
        -1335.0
      ],
      [
        "SKAL",
        -1336.0
      ],
      [
        "buru",
        -1337.0
      ],
      [
        "▁sir",
        -1338.0
      ],
      [
        "▁akšak",
        -1339.0
      ],
      [
        "▁gudug",
        -1340.0
      ],
      [
        "▁murum",
        -1341.0
      ],
      [
        "gublaga",
        -1342.0
      ],
      [
        "IŠ",
        -1343.0
      ],
      [
        "TI",
        -1344.0
      ],
      [
        "GUB",
        -1345.0
      ],
      [
        "REC",
        -1346.0
      ],
      [
        "eme",
        -1347.0
      ],
      [
        "sah",
        -1348.0
      ],
      [
        "|-|",
        -1349.0
      ],
      [
        "▁11",
        -1350.0
      ],
      [
        "▁20",
        -1351.0
      ],
      [
        "▁ap",
        -1352.0
      ],
      [
        "▁el",
        -1353.0
      ],
      [
        "▁ig",
        -1354.0
      ],
      [
        "mbir",
        -1355.0
      ],
      [
        "▁600",
        -1356.0
      ],
      [
        "▁mes",
        -1357.0
      ],
      [
        "▁šex",
        -1358.0
      ],
      [
        "buniĝ",
        -1359.0
      ],
      [
        "dagal",
        -1360.0
      ],
      [
        "sahar",
        -1361.0
      ],
      [
        "silim",
        -1362.0
      ],
      [
        "tukum",
        -1363.0
      ],
      [
        "šilam",
        -1364.0
      ],
      [
        "▁eren",
        -1365.0
      ],
      [
        "▁gudu",
        -1366.0
      ],
      [
        "▁uraš",
        -1367.0
      ],
      [
        "DINGIR",
        -1368.0
      ],
      [
        "▁36000",
        -1369.0
      ],
      [
        "▁agrig",
        -1370.0
      ],
      [
        "▁nemur",
        -1371.0
      ],
      [
        "▁šaĝan",
        -1372.0
      ],
      [
        "▁zimbir",
        -1373.0
      ],
      [
        "▁ĝišbun",
        -1374.0
      ],
      [
        "4{",
        -1375.0
      ],
      [
        "TAR",
        -1376.0
      ],
      [
        "UNU",
        -1377.0
      ],
      [
        "dah",
        -1378.0
      ],
      [
        "nib",
        -1379.0
      ],
      [
        "ŠID",
        -1380.0
      ],
      [
        "šex",
        -1381.0
      ],
      [
        "▁it",
        -1382.0
      ],
      [
        "▁ŠA",
        -1383.0
      ],
      [
        "diri",
        -1384.0
      ],
      [
        "sipa",
        -1385.0
      ],
      [
        "▁URU",
        -1386.0
      ],
      [
        "▁eše",
        -1387.0
      ],
      [
        "PIRIG",
        -1388.0
      ],
      [
        "SUHUR",
        -1389.0
      ],
      [
        "kalam",
        -1390.0
      ],
      [
        "mitum",
        -1391.0
      ],
      [
        "mussa",
        -1392.0
      ],
      [
        "nanib",
        -1393.0
      ],
      [
        "ĝisal",
        -1394.0
      ],
      [
        "▁kiši",
        -1395.0
      ],
      [
        "▁sagi",
        -1396.0
      ],
      [
        "▁šaru",
        -1397.0
      ],
      [
        "haldim",
        -1398.0
      ],
      [
        "▁absin",
        -1399.0
      ],
      [
        "▁aĝrig",
        -1400.0
      ],
      [
        "▁ušbar",
        -1401.0
      ],
      [
        "▁burudx",
        -1402.0
      ],
      [
        "▁kingal",
        -1403.0
      ],
      [
        "nanibgal",
        -1404.0
      ],
      [
        "2-|",
        -1405.0
      ],
      [
        "DAG",
        -1406.0
      ],
      [
        "SUG",
        -1407.0
      ],
      [
        "gum",
        -1408.0
      ],
      [
        "iku",
        -1409.0
      ],
      [
        "nga",
        -1410.0
      ],
      [
        "pan",
        -1411.0
      ],
      [
        "sim",
        -1412.0
      ],
      [
        "}}{",
        -1413.0
      ],
      [
        "▁8-",
        -1414.0
      ],
      [
        "▁9-",
        -1415.0
      ],
      [
        "▁IR",
        -1416.0
      ],
      [
        "▁UM",
        -1417.0
      ],
      [
        "TUKU",
        -1418.0
      ],
      [
        "▁GIR",
        -1419.0
      ],
      [
        "▁dum",
        -1420.0
      ],
      [
        "▁pel",
        -1421.0
      ],
      [
        "▁sum",
        -1422.0
      ],
      [
        "silaĝ",
        -1423.0
      ],
      [
        "▁udug",
        -1424.0
      ],
      [
        "▁unud",
        -1425.0
      ],
      [
        "▁šika",
        -1426.0
      ],
      [
        "▁abgal",
        -1427.0
      ],
      [
        "▁aškud",
        -1428.0
      ],
      [
        "▁gašam",
        -1429.0
      ],
      [
        "▁igira",
        -1430.0
      ],
      [
        "▁kurku",
        -1431.0
      ],
      [
        "▁tukul",
        -1432.0
      ],
      [
        "▁šurum",
        -1433.0
      ],
      [
        "▁gakkul",
        -1434.0
      ],
      [
        "▁nindan",
        -1435.0
      ],
      [
        "TA",
        -1436.0
      ],
      [
        "5)-",
        -1437.0
      ],
      [
        "7)-",
        -1438.0
      ],
      [
        "LIM",
        -1439.0
      ],
      [
        "TAG",
        -1440.0
      ],
      [
        "gab",
        -1441.0
      ],
      [
        "|){",
        -1442.0
      ],
      [
        "ŠIR",
        -1443.0
      ],
      [
        "▁18",
        -1444.0
      ],
      [
        "▁AM",
        -1445.0
      ],
      [
        "▁GAL",
        -1446.0
      ],
      [
        "▁NUN",
        -1447.0
      ],
      [
        "▁TUN",
        -1448.0
      ],
      [
        "▁kum",
        -1449.0
      ],
      [
        "▁sam",
        -1450.0
      ],
      [
        "▁ziz",
        -1451.0
      ],
      [
        "MUNUS",
        -1452.0
      ],
      [
        "maški",
        -1453.0
      ],
      [
        "nibru",
        -1454.0
      ],
      [
        "temen",
        -1455.0
      ],
      [
        "▁adda",
        -1456.0
      ],
      [
        "▁esir",
        -1457.0
      ],
      [
        "▁saga",
        -1458.0
      ],
      [
        "▁ukuš",
        -1459.0
      ],
      [
        "▁šeĝx",
        -1460.0
      ],
      [
        "nindan",
        -1461.0
      ],
      [
        "▁lugud",
        -1462.0
      ],
      [
        "▁pisaĝ",
        -1463.0
      ],
      [
        "▁šušin",
        -1464.0
      ],
      [
        "▁ganzer",
        -1465.0
      ],
      [
        "▁nemurx",
        -1466.0
      ],
      [
        "▁sirara",
        -1467.0
      ],
      [
        "▁šimaški",
        -1468.0
      ],
      [
        "7)",
        -1469.0
      ],
      [
        "HU",
        -1470.0
      ],
      [
        "es",
        -1471.0
      ],
      [
        "DUB",
        -1472.0
      ],
      [
        "IRI",
        -1473.0
      ],
      [
        "KIS",
        -1474.0
      ],
      [
        "TUM",
        -1475.0
      ],
      [
        "hum",
        -1476.0
      ],
      [
        "mal",
        -1477.0
      ],
      [
        "sam",
        -1478.0
      ],
      [
        "▁AD",
        -1479.0
      ],
      [
        "▁PI",
        -1480.0
      ],
      [
        "▁le",
        -1481.0
      ],
      [
        "ašag",
        -1482.0
      ],
      [
        "eden",
        -1483.0
      ],
      [
        "▁NAM",
        -1484.0
      ],
      [
        "▁bid",
        -1485.0
      ],
      [
        "▁gil",
        -1486.0
      ],
      [
        "▁itu",
        -1487.0
      ],
      [
        "▁lam",
        -1488.0
      ],
      [
        "▁sub",
        -1489.0
      ],
      [
        "▁tak",
        -1490.0
      ],
      [
        "▁ten",
        -1491.0
      ],
      [
        "▁zil",
        -1492.0
      ],
      [
        "isimu",
        -1493.0
      ],
      [
        "lunga",
        -1494.0
      ],
      [
        "suhub",
        -1495.0
      ],
      [
        "suhur",
        -1496.0
      ],
      [
        "unken",
        -1497.0
      ],
      [
        "šinig",
        -1498.0
      ],
      [
        "▁EZEN",
        -1499.0
      ],
      [
        "▁utul",
        -1500.0
      ],
      [
        "▁ušur",
        -1501.0
      ],
      [
        "gakkul",
        -1502.0
      ],
      [
        "▁immal",
        -1503.0
      ],
      [
        "▁zarah",
        -1504.0
      ],
      [
        "▁šabra",
        -1505.0
      ],
      [
        "▁muhaldim",
        -1506.0
      ],
      [
        "20",
        -1507.0
      ],
      [
        "4.",
        -1508.0
      ],
      [
        "ZE",
        -1509.0
      ],
      [
        "iĝ",
        -1510.0
      ],
      [
        "BUR",
        -1511.0
      ],
      [
        "DUN",
        -1512.0
      ],
      [
        "MAN",
        -1513.0
      ],
      [
        "ala",
        -1514.0
      ],
      [
        "sum",
        -1515.0
      ],
      [
        "uzu",
        -1516.0
      ],
      [
        "zar",
        -1517.0
      ],
      [
        "▁25",
        -1518.0
      ],
      [
        "▁AL",
        -1519.0
      ],
      [
        "▁iz",
        -1520.0
      ],
      [
        "▁uh",
        -1521.0
      ],
      [
        "dlam",
        -1522.0
      ],
      [
        "nida",
        -1523.0
      ],
      [
        "psik",
        -1524.0
      ],
      [
        "ukur",
        -1525.0
      ],
      [
        "uttu",
        -1526.0
      ],
      [
        "▁BIR",
        -1527.0
      ],
      [
        "▁GUR",
        -1528.0
      ],
      [
        "▁KID",
        -1529.0
      ],
      [
        "▁SIG",
        -1530.0
      ],
      [
        "KISIM",
        -1531.0
      ],
      [
        "durun",
        -1532.0
      ],
      [
        "gilim",
        -1533.0
      ],
      [
        "ungal",
        -1534.0
      ],
      [
        "▁dusu",
        -1535.0
      ],
      [
        "▁gidri",
        -1536.0
      ],
      [
        "▁ninnu",
        -1537.0
      ],
      [
        "▁tibir",
        -1538.0
      ],
      [
        "▁tilla",
        -1539.0
      ],
      [
        "▁ĝidlam",
        -1540.0
      ],
      [
        "2(",
        -1541.0
      ],
      [
        "5×",
        -1542.0
      ],
      [
        "60",
        -1543.0
      ],
      [
        "BR",
        -1544.0
      ],
      [
        "UŠ",
        -1545.0
      ],
      [
        "ez",
        -1546.0
      ],
      [
        "8{{",
        -1547.0
      ],
      [
        "ABA",
        -1548.0
      ],
      [
        "DIN",
        -1549.0
      ],
      [
        "GEŠ",
        -1550.0
      ],
      [
        "KAR",
        -1551.0
      ],
      [
        "NIS",
        -1552.0
      ],
      [
        "aga",
        -1553.0
      ],
      [
        "biz",
        -1554.0
      ],
      [
        "dan",
        -1555.0
      ],
      [
        "lat",
        -1556.0
      ],
      [
        "lik",
        -1557.0
      ],
      [
        "lub",
        -1558.0
      ],
      [
        "ŠAR",
        -1559.0
      ],
      [
        "šab",
        -1560.0
      ],
      [
        "▁ah",
        -1561.0
      ],
      [
        "▁qe",
        -1562.0
      ],
      [
        "BRON",
        -1563.0
      ],
      [
        "arad",
        -1564.0
      ],
      [
        "▁900",
        -1565.0
      ],
      [
        "▁BAR",
        -1566.0
      ],
      [
        "▁KIB",
        -1567.0
      ],
      [
        "▁ana",
        -1568.0
      ],
      [
        "▁gib",
        -1569.0
      ],
      [
        "▁lug",
        -1570.0
      ],
      [
        "▁nag",
        -1571.0
      ],
      [
        "▁sul",
        -1572.0
      ],
      [
        "▁tal",
        -1573.0
      ],
      [
        "LIMMU",
        -1574.0
      ],
      [
        "azlag",
        -1575.0
      ],
      [
        "ašnan",
        -1576.0
      ],
      [
        "lumhi",
        -1577.0
      ],
      [
        "▁tumu",
        -1578.0
      ],
      [
        "BRONZE",
        -1579.0
      ],
      [
        "KASKAL",
        -1580.0
      ],
      [
        "NISABA",
        -1581.0
      ],
      [
        "burudx",
        -1582.0
      ],
      [
        "▁addir",
        -1583.0
      ],
      [
        "▁galla",
        -1584.0
      ],
      [
        "▁pirig",
        -1585.0
      ],
      [
        "▁simug",
        -1586.0
      ],
      [
        "▁unkin",
        -1587.0
      ],
      [
        "▁zadim",
        -1588.0
      ],
      [
        "▁šudum",
        -1589.0
      ],
      [
        "▁ešemen",
        -1590.0
      ],
      [
        "MI",
        -1591.0
      ],
      [
        "as",
        -1592.0
      ],
      [
        "eh",
        -1593.0
      ],
      [
        "ŠA",
        -1594.0
      ],
      [
        "GAN",
        -1595.0
      ],
      [
        "HUB",
        -1596.0
      ],
      [
        "KAK",
        -1597.0
      ],
      [
        "LUM",
        -1598.0
      ],
      [
        "PAD",
        -1599.0
      ],
      [
        "ada",
        -1600.0
      ],
      [
        "bix",
        -1601.0
      ],
      [
        "iti",
        -1602.0
      ],
      [
        "kad",
        -1603.0
      ],
      [
        "kas",
        -1604.0
      ],
      [
        "kun",
        -1605.0
      ],
      [
        "qum",
        -1606.0
      ],
      [
        "reb",
        -1607.0
      ],
      [
        "rib",
        -1608.0
      ],
      [
        "urx",
        -1609.0
      ],
      [
        "zug",
        -1610.0
      ],
      [
        "▁13",
        -1611.0
      ],
      [
        "▁14",
        -1612.0
      ],
      [
        "▁60",
        -1613.0
      ],
      [
        "▁aq",
        -1614.0
      ],
      [
        "▁ux",
        -1615.0
      ],
      [
        "AMAR",
        -1616.0
      ],
      [
        "ANNA",
        -1617.0
      ],
      [
        "ARAD",
        -1618.0
      ],
      [
        "ERIN",
        -1619.0
      ],
      [
        "adad",
        -1620.0
      ],
      [
        "dida",
        -1621.0
      ],
      [
        "kuru",
        -1622.0
      ],
      [
        "mete",
        -1623.0
      ],
      [
        "naĝa",
        -1624.0
      ],
      [
        "▁DAG",
        -1625.0
      ],
      [
        "▁GAG",
        -1626.0
      ],
      [
        "▁KAR",
        -1627.0
      ],
      [
        "▁kid",
        -1628.0
      ],
      [
        "▁ŠID",
        -1629.0
      ],
      [
        "▁šuš",
        -1630.0
      ],
      [
        "BAHAR",
        -1631.0
      ],
      [
        "LAGAR",
        -1632.0
      ],
      [
        "munda",
        -1633.0
      ],
      [
        "simug",
        -1634.0
      ],
      [
        "▁agar",
        -1635.0
      ],
      [
        "▁arah",
        -1636.0
      ],
      [
        "▁udun",
        -1637.0
      ],
      [
        "▁urub",
        -1638.0
      ],
      [
        "▁akkil",
        -1639.0
      ],
      [
        "▁alurx",
        -1640.0
      ],
      [
        "▁enkum",
        -1641.0
      ],
      [
        "▁garaš",
        -1642.0
      ],
      [
        "▁giggi",
        -1643.0
      ],
      [
        "▁gurum",
        -1644.0
      ],
      [
        "▁ildum",
        -1645.0
      ],
      [
        "▁kuara",
        -1646.0
      ],
      [
        "▁lagab",
        -1647.0
      ],
      [
        "▁lagar",
        -1648.0
      ],
      [
        "▁šaĝar",
        -1649.0
      ],
      [
        "šumunda",
        -1650.0
      ],
      [
        "▁enegir",
        -1651.0
      ],
      [
        "surungal",
        -1652.0
      ],
      [
        "ĝešnimbar",
        -1653.0
      ],
      [
        "1(",
        -1654.0
      ],
      [
        "4|",
        -1655.0
      ],
      [
        "4}",
        -1656.0
      ],
      [
        "IL",
        -1657.0
      ],
      [
        "SA",
        -1658.0
      ],
      [
        "ZU",
        -1659.0
      ],
      [
        "ek",
        -1660.0
      ],
      [
        "10(",
        -1661.0
      ],
      [
        "3(|",
        -1662.0
      ],
      [
        "3)-",
        -1663.0
      ],
      [
        "600",
        -1664.0
      ],
      [
        "7{{",
        -1665.0
      ],
      [
        "BAR",
        -1666.0
      ],
      [
        "BIL",
        -1667.0
      ],
      [
        "DAR",
        -1668.0
      ],
      [
        "GAG",
        -1669.0
      ],
      [
        "GAM",
        -1670.0
      ],
      [
        "GIG",
        -1671.0
      ],
      [
        "LAG",
        -1672.0
      ],
      [
        "NIG",
        -1673.0
      ],
      [
        "SUM",
        -1674.0
      ],
      [
        "had",
        -1675.0
      ],
      [
        "hir",
        -1676.0
      ],
      [
        "lug",
        -1677.0
      ],
      [
        "num",
        -1678.0
      ],
      [
        "pil",
        -1679.0
      ],
      [
        "unu",
        -1680.0
      ],
      [
        "▁24",
        -1681.0
      ],
      [
        "▁28",
        -1682.0
      ],
      [
        "▁IB",
        -1683.0
      ],
      [
        "▁IŠ",
        -1684.0
      ],
      [
        "▁PU",
        -1685.0
      ],
      [
        "▁az",
        -1686.0
      ],
      [
        "▁ip",
        -1687.0
      ],
      [
        "2|)-",
        -1688.0
      ],
      [
        "GADA",
        -1689.0
      ],
      [
        "slah",
        -1690.0
      ],
      [
        "▁15-",
        -1691.0
      ],
      [
        "▁DIŠ",
        -1692.0
      ],
      [
        "▁NIM",
        -1693.0
      ],
      [
        "▁gag",
        -1694.0
      ],
      [
        "▁nud",
        -1695.0
      ],
      [
        "▁zuh",
        -1696.0
      ],
      [
        "ildag",
        -1697.0
      ],
      [
        "nirah",
        -1698.0
      ],
      [
        "▁DUMU",
        -1699.0
      ],
      [
        "▁utah",
        -1700.0
      ],
      [
        "▁zubi",
        -1701.0
      ],
      [
        "GEŠTUG",
        -1702.0
      ],
      [
        "ulutim",
        -1703.0
      ],
      [
        "ulušin",
        -1704.0
      ],
      [
        "▁bahar",
        -1705.0
      ],
      [
        "▁enmen",
        -1706.0
      ],
      [
        "▁kušum",
        -1707.0
      ],
      [
        "▁ĝešba",
        -1708.0
      ],
      [
        "▁šutum",
        -1709.0
      ],
      [
        "▁kislah",
        -1710.0
      ],
      [
        "▁uludin",
        -1711.0
      ],
      [
        "▁gurušta",
        -1712.0
      ],
      [
        "18",
        -1713.0
      ],
      [
        "HA",
        -1714.0
      ],
      [
        "UL",
        -1715.0
      ],
      [
        "UN",
        -1716.0
      ],
      [
        "800",
        -1717.0
      ],
      [
        "DUG",
        -1718.0
      ],
      [
        "KUŠ",
        -1719.0
      ],
      [
        "LUL",
        -1720.0
      ],
      [
        "MUN",
        -1721.0
      ],
      [
        "TIR",
        -1722.0
      ],
      [
        "gib",
        -1723.0
      ],
      [
        "hub",
        -1724.0
      ],
      [
        "kku",
        -1725.0
      ],
      [
        "pah",
        -1726.0
      ],
      [
        "pap",
        -1727.0
      ],
      [
        "sul",
        -1728.0
      ],
      [
        "tuk",
        -1729.0
      ],
      [
        "ŠIM",
        -1730.0
      ],
      [
        "šeg",
        -1731.0
      ],
      [
        "šem",
        -1732.0
      ],
      [
        "▁23",
        -1733.0
      ],
      [
        "▁UB",
        -1734.0
      ],
      [
        "▁ke",
        -1735.0
      ],
      [
        "▁uk",
        -1736.0
      ],
      [
        "3-{{",
        -1737.0
      ],
      [
        "SUEN",
        -1738.0
      ],
      [
        "alad",
        -1739.0
      ],
      [
        "ezen",
        -1740.0
      ],
      [
        "ppir",
        -1741.0
      ],
      [
        "urub",
        -1742.0
      ],
      [
        "▁GAM",
        -1743.0
      ],
      [
        "▁LIL",
        -1744.0
      ],
      [
        "▁MAN",
        -1745.0
      ],
      [
        "▁REC",
        -1746.0
      ],
      [
        "▁SAG",
        -1747.0
      ],
      [
        "▁SAL",
        -1748.0
      ],
      [
        "▁TAG",
        -1749.0
      ],
      [
        "▁aka",
        -1750.0
      ],
      [
        "▁bil",
        -1751.0
      ],
      [
        "▁gum",
        -1752.0
      ],
      [
        "▁iku",
        -1753.0
      ],
      [
        "▁kir",
        -1754.0
      ],
      [
        "▁piš",
        -1755.0
      ],
      [
        "▁tin",
        -1756.0
      ],
      [
        "immax",
        -1757.0
      ],
      [
        "kišib",
        -1758.0
      ],
      [
        "lulim",
        -1759.0
      ],
      [
        "piriĝ",
        -1760.0
      ],
      [
        "pisaĝ",
        -1761.0
      ],
      [
        "šutum",
        -1762.0
      ],
      [
        "▁600-",
        -1763.0
      ],
      [
        "▁gabu",
        -1764.0
      ],
      [
        "▁kara",
        -1765.0
      ],
      [
        "▁uzud",
        -1766.0
      ],
      [
        "munzer",
        -1767.0
      ],
      [
        "▁kukku",
        -1768.0
      ],
      [
        "▁silig",
        -1769.0
      ],
      [
        "▁šidim",
        -1770.0
      ],
      [
        "▁KASKAL",
        -1771.0
      ],
      [
        "▁bappir",
        -1772.0
      ],
      [
        "▁irigal",
        -1773.0
      ],
      [
        "▁muštug",
        -1774.0
      ],
      [
        "▁šubtum",
        -1775.0
      ],
      [
        "){",
        -1776.0
      ],
      [
        "-3",
        -1777.0
      ],
      [
        "25",
        -1778.0
      ],
      [
        "5)",
        -1779.0
      ],
      [
        "AK",
        -1780.0
      ],
      [
        "FE",
        -1781.0
      ],
      [
        "PI",
        -1782.0
      ],
      [
        "et",
        -1783.0
      ],
      [
        "qe",
        -1784.0
      ],
      [
        "up",
        -1785.0
      ],
      [
        "}|",
        -1786.0
      ],
      [
        "ŠI",
        -1787.0
      ],
      [
        "-1(",
        -1788.0
      ],
      [
        "169",
        -1789.0
      ],
      [
        "19-",
        -1790.0
      ],
      [
        "22-",
        -1791.0
      ],
      [
        "29-",
        -1792.0
      ],
      [
        "3|-",
        -1793.0
      ],
      [
        "4|-",
        -1794.0
      ],
      [
        "DAN",
        -1795.0
      ],
      [
        "KAD",
        -1796.0
      ],
      [
        "KUM",
        -1797.0
      ],
      [
        "SUD",
        -1798.0
      ],
      [
        "mat",
        -1799.0
      ],
      [
        "rat",
        -1800.0
      ],
      [
        "sbu",
        -1801.0
      ],
      [
        "sis",
        -1802.0
      ],
      [
        "suš",
        -1803.0
      ],
      [
        "tan",
        -1804.0
      ],
      [
        "▁8(",
        -1805.0
      ],
      [
        "▁IL",
        -1806.0
      ],
      [
        "▁ut",
        -1807.0
      ],
      [
        "GABA",
        -1808.0
      ],
      [
        "IMIN",
        -1809.0
      ],
      [
        "alam",
        -1810.0
      ],
      [
        "anzu",
        -1811.0
      ],
      [
        "dala",
        -1812.0
      ],
      [
        "dehi",
        -1813.0
      ],
      [
        "ebih",
        -1814.0
      ],
      [
        "imin",
        -1815.0
      ],
      [
        "kara",
        -1816.0
      ],
      [
        "nita",
        -1817.0
      ],
      [
        "siga",
        -1818.0
      ],
      [
        "ubur",
        -1819.0
      ],
      [
        "utua",
        -1820.0
      ],
      [
        "utul",
        -1821.0
      ],
      [
        "zkim",
        -1822.0
      ],
      [
        "▁100",
        -1823.0
      ],
      [
        "▁420",
        -1824.0
      ],
      [
        "▁BUR",
        -1825.0
      ],
      [
        "▁DUG",
        -1826.0
      ],
      [
        "▁GIM",
        -1827.0
      ],
      [
        "▁HUB",
        -1828.0
      ],
      [
        "▁KAŠ",
        -1829.0
      ],
      [
        "▁KUM",
        -1830.0
      ],
      [
        "▁LUL",
        -1831.0
      ],
      [
        "▁TAB",
        -1832.0
      ],
      [
        "▁kam",
        -1833.0
      ],
      [
        "▁rah",
        -1834.0
      ],
      [
        "▁sah",
        -1835.0
      ],
      [
        "▁zib",
        -1836.0
      ],
      [
        "▁zur",
        -1837.0
      ],
      [
        "-3600",
        -1838.0
      ],
      [
        "IŠKUR",
        -1839.0
      ],
      [
        "balaĝ",
        -1840.0
      ],
      [
        "engar",
        -1841.0
      ],
      [
        "gidim",
        -1842.0
      ],
      [
        "kurun",
        -1843.0
      ],
      [
        "sukud",
        -1844.0
      ],
      [
        "urudu",
        -1845.0
      ],
      [
        "zukum",
        -1846.0
      ],
      [
        "šutur",
        -1847.0
      ],
      [
        "▁GABA",
        -1848.0
      ],
      [
        "▁esaĝ",
        -1849.0
      ],
      [
        "▁gazi",
        -1850.0
      ],
      [
        "▁šegx",
        -1851.0
      ],
      [
        "FEMALE",
        -1852.0
      ],
      [
        "dupsik",
        -1853.0
      ],
      [
        "geštin",
        -1854.0
      ],
      [
        "ĝeštug",
        -1855.0
      ],
      [
        "▁dubur",
        -1856.0
      ],
      [
        "▁durum",
        -1857.0
      ],
      [
        "▁susbu",
        -1858.0
      ],
      [
        "zulumhi",
        -1859.0
      ],
      [
        "▁geštin",
        -1860.0
      ],
      [
        "▁gizkim",
        -1861.0
      ],
      [
        "▁kisiga",
        -1862.0
      ],
      [
        "▁ninkum",
        -1863.0
      ],
      [
        "▁siskur",
        -1864.0
      ],
      [
        "▁ĝeškim",
        -1865.0
      ],
      [
        "▁šutumx",
        -1866.0
      ],
      [
        "gublagax",
        -1867.0
      ],
      [
        "▁kindagal",
        -1868.0
      ],
      [
        "▁ĝešnimbar",
        -1869.0
      ],
      [
        "0-",
        -1870.0
      ],
      [
        "19",
        -1871.0
      ],
      [
        "3(",
        -1872.0
      ],
      [
        "7}",
        -1873.0
      ],
      [
        "9{",
        -1874.0
      ],
      [
        "OD",
        -1875.0
      ],
      [
        "WO",
        -1876.0
      ],
      [
        "uq",
        -1877.0
      ],
      [
        "|{",
        -1878.0
      ],
      [
        "2(|",
        -1879.0
      ],
      [
        "2}-",
        -1880.0
      ],
      [
        "DIM",
        -1881.0
      ],
      [
        "GID",
        -1882.0
      ],
      [
        "GUL",
        -1883.0
      ],
      [
        "KAM",
        -1884.0
      ],
      [
        "KIB",
        -1885.0
      ],
      [
        "KUG",
        -1886.0
      ],
      [
        "MES",
        -1887.0
      ],
      [
        "NIM",
        -1888.0
      ],
      [
        "NUZ",
        -1889.0
      ],
      [
        "PAP",
        -1890.0
      ],
      [
        "SAG",
        -1891.0
      ],
      [
        "SIK",
        -1892.0
      ],
      [
        "TAK",
        -1893.0
      ],
      [
        "bat",
        -1894.0
      ],
      [
        "guz",
        -1895.0
      ],
      [
        "kux",
        -1896.0
      ],
      [
        "mas",
        -1897.0
      ],
      [
        "nag",
        -1898.0
      ],
      [
        "pel",
        -1899.0
      ],
      [
        "rud",
        -1900.0
      ],
      [
        "ter",
        -1901.0
      ],
      [
        "zib",
        -1902.0
      ],
      [
        "šud",
        -1903.0
      ],
      [
        "▁16",
        -1904.0
      ],
      [
        "▁17",
        -1905.0
      ],
      [
        "▁21",
        -1906.0
      ],
      [
        "▁AH",
        -1907.0
      ],
      [
        "▁AK",
        -1908.0
      ],
      [
        "▁ER",
        -1909.0
      ],
      [
        "▁IG",
        -1910.0
      ],
      [
        "▁UG",
        -1911.0
      ],
      [
        "▁ik",
        -1912.0
      ],
      [
        "▁up",
        -1913.0
      ],
      [
        "11{{",
        -1914.0
      ],
      [
        "EDIN",
        -1915.0
      ],
      [
        "LAMA",
        -1916.0
      ],
      [
        "WOOD",
        -1917.0
      ],
      [
        "anta",
        -1918.0
      ],
      [
        "bara",
        -1919.0
      ],
      [
        "ensi",
        -1920.0
      ],
      [
        "saga",
        -1921.0
      ],
      [
        "umun",
        -1922.0
      ],
      [
        "ušum",
        -1923.0
      ],
      [
        "ĝaĝa",
        -1924.0
      ],
      [
        "▁120",
        -1925.0
      ],
      [
        "▁300",
        -1926.0
      ],
      [
        "▁AMA",
        -1927.0
      ],
      [
        "▁BAL",
        -1928.0
      ],
      [
        "▁GIL",
        -1929.0
      ],
      [
        "▁KEŠ",
        -1930.0
      ],
      [
        "▁KUG",
        -1931.0
      ],
      [
        "▁LUM",
        -1932.0
      ],
      [
        "▁MIN",
        -1933.0
      ],
      [
        "▁MIR",
        -1934.0
      ],
      [
        "▁NIG",
        -1935.0
      ],
      [
        "▁UGU",
        -1936.0
      ],
      [
        "▁biz",
        -1937.0
      ],
      [
        "▁giš",
        -1938.0
      ],
      [
        "▁niš",
        -1939.0
      ],
      [
        "▁qar",
        -1940.0
      ],
      [
        "▁uku",
        -1941.0
      ],
      [
        "▁ŠEN",
        -1942.0
      ],
      [
        "▁ŠUL",
        -1943.0
      ],
      [
        "NANNA",
        -1944.0
      ],
      [
        "akkil",
        -1945.0
      ],
      [
        "hirim",
        -1946.0
      ],
      [
        "immar",
        -1947.0
      ],
      [
        "lagab",
        -1948.0
      ],
      [
        "nesaĝ",
        -1949.0
      ],
      [
        "nigin",
        -1950.0
      ],
      [
        "ninna",
        -1951.0
      ],
      [
        "nisig",
        -1952.0
      ],
      [
        "puzur",
        -1953.0
      ],
      [
        "sanga",
        -1954.0
      ],
      [
        "saĝšu",
        -1955.0
      ],
      [
        "sumur",
        -1956.0
      ],
      [
        "ĝarza",
        -1957.0
      ],
      [
        "▁1200",
        -1958.0
      ],
      [
        "▁TUKU",
        -1959.0
      ],
      [
        "▁apin",
        -1960.0
      ],
      [
        "▁simx",
        -1961.0
      ],
      [
        "▁turx",
        -1962.0
      ],
      [
        "▁usar",
        -1963.0
      ],
      [
        "▁uzug",
        -1964.0
      ],
      [
        "antana",
        -1965.0
      ],
      [
        "dilmun",
        -1966.0
      ],
      [
        "lungax",
        -1967.0
      ],
      [
        "sirara",
        -1968.0
      ],
      [
        "▁28800",
        -1969.0
      ],
      [
        "▁LAGAB",
        -1970.0
      ],
      [
        "▁ašgab",
        -1971.0
      ],
      [
        "▁bisaĝ",
        -1972.0
      ],
      [
        "▁enkud",
        -1973.0
      ],
      [
        "▁gilim",
        -1974.0
      ],
      [
        "▁gurud",
        -1975.0
      ],
      [
        "▁immen",
        -1976.0
      ],
      [
        "▁mitum",
        -1977.0
      ],
      [
        "▁uruda",
        -1978.0
      ],
      [
        "▁šumun",
        -1979.0
      ],
      [
        "▁dupsik",
        -1980.0
      ],
      [
        "▁imĝaĝa",
        -1981.0
      ],
      [
        "▁tibira",
        -1982.0
      ],
      [
        "▁santana",
        -1983.0
      ],
      [
        "▁agargara",
        -1984.0
      ],
      [
        "-3600-3600",
        -1985.0
      ],
      [
        "3@",
        -1986.0
      ],
      [
        "3×",
        -1987.0
      ],
      [
        "44",
        -1988.0
      ],
      [
        "6.",
        -1989.0
      ],
      [
        "7.",
        -1990.0
      ],
      [
        "9(",
        -1991.0
      ],
      [
        "UH",
        -1992.0
      ],
      [
        "ih",
        -1993.0
      ],
      [
        "}{",
        -1994.0
      ],
      [
        "-5-",
        -1995.0
      ],
      [
        "200",
        -1996.0
      ],
      [
        "7(|",
        -1997.0
      ],
      [
        "9{{",
        -1998.0
      ],
      [
        "DUR",
        -1999.0
      ],
      [
        "IBI",
        -2000.0
      ],
      [
        "KEŠ",
        -2001.0
      ],
      [
        "LAK",
        -2002.0
      ],
      [
        "LAL",
        -2003.0
      ],
      [
        "NAR",
        -2004.0
      ],
      [
        "TAB",
        -2005.0
      ],
      [
        "TAH",
        -2006.0
      ],
      [
        "TIL",
        -2007.0
      ],
      [
        "eri",
        -2008.0
      ],
      [
        "giĝ",
        -2009.0
      ],
      [
        "kab",
        -2010.0
      ],
      [
        "liš",
        -2011.0
      ],
      [
        "mil",
        -2012.0
      ],
      [
        "pak",
        -2013.0
      ],
      [
        "pir",
        -2014.0
      ],
      [
        "qar",
        -2015.0
      ],
      [
        "ĝan",
        -2016.0
      ],
      [
        "šah",
        -2017.0
      ],
      [
        "šib",
        -2018.0
      ],
      [
        "▁22",
        -2019.0
      ],
      [
        "▁26",
        -2020.0
      ],
      [
        "▁40",
        -2021.0
      ],
      [
        "▁9(",
        -2022.0
      ],
      [
        "▁90",
        -2023.0
      ],
      [
        "▁DE",
        -2024.0
      ],
      [
        "▁EŠ",
        -2025.0
      ],
      [
        "▁ih",
        -2026.0
      ],
      [
        "▁qu",
        -2027.0
      ],
      [
        "-10-",
        -2028.0
      ],
      [
        "145)",
        -2029.0
      ],
      [
        "17{{",
        -2030.0
      ],
      [
        "2|-|",
        -2031.0
      ],
      [
        "SILA",
        -2032.0
      ],
      [
        "gala",
        -2033.0
      ],
      [
        "idim",
        -2034.0
      ],
      [
        "munu",
        -2035.0
      ],
      [
        "ussu",
        -2036.0
      ],
      [
        "zubi",
        -2037.0
      ],
      [
        "šudu",
        -2038.0
      ],
      [
        "▁360",
        -2039.0
      ],
      [
        "▁AGA",
        -2040.0
      ],
      [
        "▁DUL",
        -2041.0
      ],
      [
        "▁GUL",
        -2042.0
      ],
      [
        "▁KAM",
        -2043.0
      ],
      [
        "▁KIN",
        -2044.0
      ],
      [
        "▁KUŠ",
        -2045.0
      ],
      [
        "▁LAM",
        -2046.0
      ],
      [
        "▁NIN",
        -2047.0
      ],
      [
        "▁NIR",
        -2048.0
      ],
      [
        "▁SUD",
        -2049.0
      ],
      [
        "▁SUG",
        -2050.0
      ],
      [
        "▁SUM",
        -2051.0
      ],
      [
        "▁bul",
        -2052.0
      ],
      [
        "▁enx",
        -2053.0
      ],
      [
        "▁eša",
        -2054.0
      ],
      [
        "▁guz",
        -2055.0
      ],
      [
        "▁heš",
        -2056.0
      ],
      [
        "▁hum",
        -2057.0
      ],
      [
        "▁iši",
        -2058.0
      ],
      [
        "▁mut",
        -2059.0
      ],
      [
        "▁rab",
        -2060.0
      ],
      [
        "▁sab",
        -2061.0
      ],
      [
        "▁ses",
        -2062.0
      ],
      [
        "▁zix",
        -2063.0
      ],
      [
        "BALAG",
        -2064.0
      ],
      [
        "GISAL",
        -2065.0
      ],
      [
        "IBILA",
        -2066.0
      ],
      [
        "aktum",
        -2067.0
      ],
      [
        "ašgab",
        -2068.0
      ],
      [
        "bisaĝ",
        -2069.0
      ],
      [
        "dilim",
        -2070.0
      ],
      [
        "girid",
        -2071.0
      ],
      [
        "gurud",
        -2072.0
      ],
      [
        "illar",
        -2073.0
      ],
      [
        "illat",
        -2074.0
      ],
      [
        "kirid",
        -2075.0
      ],
      [
        "nagar",
        -2076.0
      ],
      [
        "šabra",
        -2077.0
      ],
      [
        "šaĝan",
        -2078.0
      ],
      [
        "šibir",
        -2079.0
      ],
      [
        "▁ANŠE",
        -2080.0
      ],
      [
        "▁EDIN",
        -2081.0
      ],
      [
        "▁GIRI",
        -2082.0
      ],
      [
        "▁akan",
        -2083.0
      ],
      [
        "▁alal",
        -2084.0
      ],
      [
        "▁dara",
        -2085.0
      ],
      [
        "▁dida",
        -2086.0
      ],
      [
        "▁enim",
        -2087.0
      ],
      [
        "▁kušu",
        -2088.0
      ],
      [
        "▁ubix",
        -2089.0
      ],
      [
        "▁umah",
        -2090.0
      ],
      [
        "alamuš",
        -2091.0
      ],
      [
        "bulugx",
        -2092.0
      ],
      [
        "dimgul",
        -2093.0
      ],
      [
        "▁SAHAR",
        -2094.0
      ],
      [
        "▁abrig",
        -2095.0
      ],
      [
        "▁addax",
        -2096.0
      ],
      [
        "▁balag",
        -2097.0
      ],
      [
        "▁bisag",
        -2098.0
      ],
      [
        "▁durah",
        -2099.0
      ],
      [
        "▁gidru",
        -2100.0
      ],
      [
        "▁girid",
        -2101.0
      ],
      [
        "▁inana",
        -2102.0
      ],
      [
        "▁nagga",
        -2103.0
      ],
      [
        "▁silaĝ",
        -2104.0
      ],
      [
        "▁suhub",
        -2105.0
      ],
      [
        "▁zukum",
        -2106.0
      ],
      [
        "▁šakan",
        -2107.0
      ],
      [
        "algameš",
        -2108.0
      ],
      [
        "isimudx",
        -2109.0
      ],
      [
        "nindaba",
        -2110.0
      ],
      [
        "▁agarin",
        -2111.0
      ],
      [
        "buranunx",
        -2112.0
      ],
      [
        "▁garadin",
        -2113.0
      ],
      [
        "▁zulumhi",
        -2114.0
      ],
      [
        "▁gešimmar",
        -2115.0
      ],
      [
        "3|",
        -2116.0
      ],
      [
        "40",
        -2117.0
      ],
      [
        "6(",
        -2118.0
      ],
      [
        "8.",
        -2119.0
      ],
      [
        "9)",
        -2120.0
      ],
      [
        "90",
        -2121.0
      ],
      [
        "IB",
        -2122.0
      ],
      [
        "UB",
        -2123.0
      ],
      [
        "US",
        -2124.0
      ],
      [
        "UZ",
        -2125.0
      ],
      [
        "aq",
        -2126.0
      ],
      [
        "▁G",
        -2127.0
      ],
      [
        "17|",
        -2128.0
      ],
      [
        "2-3",
        -2129.0
      ],
      [
        "DAM",
        -2130.0
      ],
      [
        "DIB",
        -2131.0
      ],
      [
        "DIR",
        -2132.0
      ],
      [
        "EGI",
        -2133.0
      ],
      [
        "GIN",
        -2134.0
      ],
      [
        "KIN",
        -2135.0
      ],
      [
        "NIN",
        -2136.0
      ],
      [
        "URI",
        -2137.0
      ],
      [
        "bid",
        -2138.0
      ],
      [
        "bra",
        -2139.0
      ],
      [
        "bum",
        -2140.0
      ],
      [
        "gim",
        -2141.0
      ],
      [
        "lih",
        -2142.0
      ],
      [
        "nen",
        -2143.0
      ],
      [
        "niq",
        -2144.0
      ],
      [
        "nit",
        -2145.0
      ],
      [
        "pag",
        -2146.0
      ],
      [
        "rru",
        -2147.0
      ],
      [
        "tap",
        -2148.0
      ],
      [
        "tiš",
        -2149.0
      ],
      [
        "ziz",
        -2150.0
      ],
      [
        "zum",
        -2151.0
      ],
      [
        "ŠAG",
        -2152.0
      ],
      [
        "ŠUB",
        -2153.0
      ],
      [
        "šat",
        -2154.0
      ],
      [
        "štu",
        -2155.0
      ],
      [
        "▁32",
        -2156.0
      ],
      [
        "▁35",
        -2157.0
      ],
      [
        "▁48",
        -2158.0
      ],
      [
        "▁58",
        -2159.0
      ],
      [
        "▁HE",
        -2160.0
      ],
      [
        "▁as",
        -2161.0
      ],
      [
        "▁iq",
        -2162.0
      ],
      [
        "▁qi",
        -2163.0
      ],
      [
        "▁ŠI",
        -2164.0
      ],
      [
        "16{{",
        -2165.0
      ],
      [
        "449)",
        -2166.0
      ],
      [
        "URUB",
        -2167.0
      ],
      [
        "amaš",
        -2168.0
      ],
      [
        "dnum",
        -2169.0
      ],
      [
        "geme",
        -2170.0
      ],
      [
        "hulu",
        -2171.0
      ],
      [
        "inda",
        -2172.0
      ],
      [
        "kila",
        -2173.0
      ],
      [
        "kurx",
        -2174.0
      ],
      [
        "lama",
        -2175.0
      ],
      [
        "luda",
        -2176.0
      ],
      [
        "pana",
        -2177.0
      ],
      [
        "simx",
        -2178.0
      ],
      [
        "skim",
        -2179.0
      ],
      [
        "surx",
        -2180.0
      ],
      [
        "ugur",
        -2181.0
      ],
      [
        "ušda",
        -2182.0
      ],
      [
        "▁11-",
        -2183.0
      ],
      [
        "▁12-",
        -2184.0
      ],
      [
        "▁144",
        -2185.0
      ],
      [
        "▁660",
        -2186.0
      ],
      [
        "▁840",
        -2187.0
      ],
      [
        "▁960",
        -2188.0
      ],
      [
        "▁DIN",
        -2189.0
      ],
      [
        "▁DUR",
        -2190.0
      ],
      [
        "▁GUG",
        -2191.0
      ],
      [
        "▁GUN",
        -2192.0
      ],
      [
        "▁KAB",
        -2193.0
      ],
      [
        "▁KAN",
        -2194.0
      ],
      [
        "▁MAR",
        -2195.0
      ],
      [
        "▁MES",
        -2196.0
      ],
      [
        "▁PAD",
        -2197.0
      ],
      [
        "▁PAP",
        -2198.0
      ],
      [
        "▁SUH",
        -2199.0
      ],
      [
        "▁SUR",
        -2200.0
      ],
      [
        "▁TIN",
        -2201.0
      ],
      [
        "▁ULU",
        -2202.0
      ],
      [
        "▁UNU",
        -2203.0
      ],
      [
        "▁ZUM",
        -2204.0
      ],
      [
        "▁bun",
        -2205.0
      ],
      [
        "▁egi",
        -2206.0
      ],
      [
        "▁gel",
        -2207.0
      ],
      [
        "▁idx",
        -2208.0
      ],
      [
        "▁isi",
        -2209.0
      ],
      [
        "▁mug",
        -2210.0
      ],
      [
        "▁par",
        -2211.0
      ],
      [
        "▁šak",
        -2212.0
      ],
      [
        "NAGAR",
        -2213.0
      ],
      [
        "NUMUN",
        -2214.0
      ],
      [
        "NUNUZ",
        -2215.0
      ],
      [
        "SAHAR",
        -2216.0
      ],
      [
        "abrig",
        -2217.0
      ],
      [
        "ambar",
        -2218.0
      ],
      [
        "anzud",
        -2219.0
      ],
      [
        "danna",
        -2220.0
      ],
      [
        "girim",
        -2221.0
      ],
      [
        "kibir",
        -2222.0
      ],
      [
        "lagar",
        -2223.0
      ],
      [
        "lirum",
        -2224.0
      ],
      [
        "niĝar",
        -2225.0
      ],
      [
        "niĝir",
        -2226.0
      ],
      [
        "nunuz",
        -2227.0
      ],
      [
        "tukur",
        -2228.0
      ],
      [
        "usanx",
        -2229.0
      ],
      [
        "ĝalga",
        -2230.0
      ],
      [
        "ĝešba",
        -2231.0
      ],
      [
        "ĝušur",
        -2232.0
      ],
      [
        "ŠILAM",
        -2233.0
      ],
      [
        "šidim",
        -2234.0
      ],
      [
        "▁7200",
        -2235.0
      ],
      [
        "▁bara",
        -2236.0
      ],
      [
        "▁kana",
        -2237.0
      ],
      [
        "▁mudx",
        -2238.0
      ],
      [
        "▁usan",
        -2239.0
      ],
      [
        "▁ussu",
        -2240.0
      ],
      [
        "▁šuku",
        -2241.0
      ],
      [
        "INANNA",
        -2242.0
      ],
      [
        "durunx",
        -2243.0
      ],
      [
        "habrud",
        -2244.0
      ],
      [
        "henbur",
        -2245.0
      ],
      [
        "suhurx",
        -2246.0
      ],
      [
        "tišpak",
        -2247.0
      ],
      [
        "▁LIMMU",
        -2248.0
      ],
      [
        "▁MURUB",
        -2249.0
      ],
      [
        "▁NUMUN",
        -2250.0
      ],
      [
        "▁PIRIG",
        -2251.0
      ],
      [
        "▁ZALAG",
        -2252.0
      ],
      [
        "▁abzux",
        -2253.0
      ],
      [
        "▁amalu",
        -2254.0
      ],
      [
        "▁bibra",
        -2255.0
      ],
      [
        "▁dabin",
        -2256.0
      ],
      [
        "▁dimma",
        -2257.0
      ],
      [
        "▁durun",
        -2258.0
      ],
      [
        "▁enkar",
        -2259.0
      ],
      [
        "▁galga",
        -2260.0
      ],
      [
        "▁gissu",
        -2261.0
      ],
      [
        "▁kisim",
        -2262.0
      ],
      [
        "▁nisag",
        -2263.0
      ],
      [
        "▁subar",
        -2264.0
      ],
      [
        "▁ukkin",
        -2265.0
      ],
      [
        "▁zirru",
        -2266.0
      ],
      [
        "▁šubax",
        -2267.0
      ],
      [
        "▁36000-",
        -2268.0
      ],
      [
        "▁GIŠGAL",
        -2269.0
      ],
      [
        "▁addirx",
        -2270.0
      ],
      [
        "▁biluda",
        -2271.0
      ],
      [
        "▁gambix",
        -2272.0
      ],
      [
        "▁giskim",
        -2273.0
      ],
      [
        "▁henzer",
        -2274.0
      ],
      [
        "▁igištu",
        -2275.0
      ],
      [
        "▁karkar",
        -2276.0
      ],
      [
        "▁kašbir",
        -2277.0
      ],
      [
        "▁lahtan",
        -2278.0
      ],
      [
        "▁samanx",
        -2279.0
      ],
      [
        "▁tidnum",
        -2280.0
      ],
      [
        "▁zabala",
        -2281.0
      ],
      [
        "▁zibbir",
        -2282.0
      ],
      [
        "▁ĝišgal",
        -2283.0
      ],
      [
        "muhaldim",
        -2284.0
      ],
      [
        "▁karkara",
        -2285.0
      ],
      [
        "▁kurušda",
        -2286.0
      ],
      [
        "▁nitadam",
        -2287.0
      ],
      [
        "▁šakanka",
        -2288.0
      ],
      [
        "▁šembizid",
        -2289.0
      ],
      [
        "▁šembulugx",
        -2290.0
      ],
      [
        "22",
        -2291.0
      ],
      [
        "4(",
        -2292.0
      ],
      [
        "4×",
        -2293.0
      ],
      [
        "5.",
        -2294.0
      ],
      [
        "5{",
        -2295.0
      ],
      [
        "6{",
        -2296.0
      ],
      [
        "8|",
        -2297.0
      ],
      [
        "AH",
        -2298.0
      ],
      [
        "IA",
        -2299.0
      ],
      [
        "II",
        -2300.0
      ],
      [
        "KE",
        -2301.0
      ],
      [
        "MO",
        -2302.0
      ],
      [
        "PU",
        -2303.0
      ],
      [
        "UG",
        -2304.0
      ],
      [
        "eg",
        -2305.0
      ],
      [
        "eq",
        -2306.0
      ],
      [
        "(|(",
        -2307.0
      ],
      [
        "107",
        -2308.0
      ],
      [
        "10{",
        -2309.0
      ],
      [
        "3|)",
        -2310.0
      ],
      [
        "8)-",
        -2311.0
      ],
      [
        "AIN",
        -2312.0
      ],
      [
        "BAB",
        -2313.0
      ],
      [
        "BIN",
        -2314.0
      ],
      [
        "BUL",
        -2315.0
      ],
      [
        "GAZ",
        -2316.0
      ],
      [
        "GIL",
        -2317.0
      ],
      [
        "GIM",
        -2318.0
      ],
      [
        "GUD",
        -2319.0
      ],
      [
        "HUŠ",
        -2320.0
      ],
      [
        "IDU",
        -2321.0
      ],
      [
        "KAB",
        -2322.0
      ],
      [
        "KAŠ",
        -2323.0
      ],
      [
        "KIL",
        -2324.0
      ],
      [
        "LAN",
        -2325.0
      ],
      [
        "LUG",
        -2326.0
      ],
      [
        "MOU",
        -2327.0
      ],
      [
        "MUM",
        -2328.0
      ],
      [
        "NAM",
        -2329.0
      ],
      [
        "NIR",
        -2330.0
      ],
      [
        "PAB",
        -2331.0
      ],
      [
        "TUN",
        -2332.0
      ],
      [
        "asa",
        -2333.0
      ],
      [
        "bit",
        -2334.0
      ],
      [
        "biš",
        -2335.0
      ],
      [
        "emx",
        -2336.0
      ],
      [
        "eša",
        -2337.0
      ],
      [
        "ešx",
        -2338.0
      ],
      [
        "giz",
        -2339.0
      ],
      [
        "giš",
        -2340.0
      ],
      [
        "kip",
        -2341.0
      ],
      [
        "kuk",
        -2342.0
      ],
      [
        "lit",
        -2343.0
      ],
      [
        "mum",
        -2344.0
      ],
      [
        "nak",
        -2345.0
      ],
      [
        "niš",
        -2346.0
      ],
      [
        "nur",
        -2347.0
      ],
      [
        "qat",
        -2348.0
      ],
      [
        "rix",
        -2349.0
      ],
      [
        "rma",
        -2350.0
      ],
      [
        "rub",
        -2351.0
      ],
      [
        "san",
        -2352.0
      ],
      [
        "sas",
        -2353.0
      ],
      [
        "siq",
        -2354.0
      ],
      [
        "tuq",
        -2355.0
      ],
      [
        "ŠUM",
        -2356.0
      ],
      [
        "šer",
        -2357.0
      ],
      [
        "▁19",
        -2358.0
      ],
      [
        "▁27",
        -2359.0
      ],
      [
        "▁34",
        -2360.0
      ],
      [
        "▁43",
        -2361.0
      ],
      [
        "▁45",
        -2362.0
      ],
      [
        "▁49",
        -2363.0
      ],
      [
        "▁54",
        -2364.0
      ],
      [
        "▁56",
        -2365.0
      ],
      [
        "▁67",
        -2366.0
      ],
      [
        "▁70",
        -2367.0
      ],
      [
        "▁99",
        -2368.0
      ],
      [
        "▁AG",
        -2369.0
      ],
      [
        "▁IZ",
        -2370.0
      ],
      [
        "▁KE",
        -2371.0
      ],
      [
        "▁RN",
        -2372.0
      ],
      [
        "▁US",
        -2373.0
      ],
      [
        "▁UZ",
        -2374.0
      ],
      [
        "▁em",
        -2375.0
      ],
      [
        ")-1(",
        -2376.0
      ],
      [
        "1000",
        -2377.0
      ],
      [
        "13(|",
        -2378.0
      ],
      [
        "3|)-",
        -2379.0
      ],
      [
        "4|-|",
        -2380.0
      ],
      [
        "7-{{",
        -2381.0
      ],
      [
        "ABZU",
        -2382.0
      ],
      [
        "ANŠE",
        -2383.0
      ],
      [
        "GIRI",
        -2384.0
      ],
      [
        "ISAL",
        -2385.0
      ],
      [
        "KKAL",
        -2386.0
      ],
      [
        "NAGA",
        -2387.0
      ],
      [
        "NŠUB",
        -2388.0
      ],
      [
        "UMUM",
        -2389.0
      ],
      [
        "URGU",
        -2390.0
      ],
      [
        "URUD",
        -2391.0
      ],
      [
        "URUN",
        -2392.0
      ],
      [
        "alal",
        -2393.0
      ],
      [
        "dulu",
        -2394.0
      ],
      [
        "garx",
        -2395.0
      ],
      [
        "gazi",
        -2396.0
      ],
      [
        "gida",
        -2397.0
      ],
      [
        "gunu",
        -2398.0
      ],
      [
        "gurx",
        -2399.0
      ],
      [
        "guza",
        -2400.0
      ],
      [
        "inšu",
        -2401.0
      ],
      [
        "itid",
        -2402.0
      ],
      [
        "kala",
        -2403.0
      ],
      [
        "muru",
        -2404.0
      ],
      [
        "nabi",
        -2405.0
      ],
      [
        "pešx",
        -2406.0
      ],
      [
        "sedx",
        -2407.0
      ],
      [
        "sigx",
        -2408.0
      ],
      [
        "suru",
        -2409.0
      ],
      [
        "tenx",
        -2410.0
      ],
      [
        "turx",
        -2411.0
      ],
      [
        "udun",
        -2412.0
      ],
      [
        "umum",
        -2413.0
      ],
      [
        "unug",
        -2414.0
      ],
      [
        "urin",
        -2415.0
      ],
      [
        "ušub",
        -2416.0
      ],
      [
        "ŠUKU",
        -2417.0
      ],
      [
        "šegx",
        -2418.0
      ],
      [
        "šudx",
        -2419.0
      ],
      [
        "▁108",
        -2420.0
      ],
      [
        "▁14-",
        -2421.0
      ],
      [
        "▁140",
        -2422.0
      ],
      [
        "▁160",
        -2423.0
      ],
      [
        "▁180",
        -2424.0
      ],
      [
        "▁2(|",
        -2425.0
      ],
      [
        "▁356",
        -2426.0
      ],
      [
        "▁400",
        -2427.0
      ],
      [
        "▁720",
        -2428.0
      ],
      [
        "▁DAM",
        -2429.0
      ],
      [
        "▁DAR",
        -2430.0
      ],
      [
        "▁DIB",
        -2431.0
      ],
      [
        "▁DIR",
        -2432.0
      ],
      [
        "▁GID",
        -2433.0
      ],
      [
        "▁GUD",
        -2434.0
      ],
      [
        "▁KUL",
        -2435.0
      ],
      [
        "▁LAL",
        -2436.0
      ],
      [
        "▁MUD",
        -2437.0
      ],
      [
        "▁MUG",
        -2438.0
      ],
      [
        "▁URI",
        -2439.0
      ],
      [
        "▁asi",
        -2440.0
      ],
      [
        "▁dah",
        -2441.0
      ],
      [
        "▁gim",
        -2442.0
      ],
      [
        "▁had",
        -2443.0
      ],
      [
        "▁huz",
        -2444.0
      ],
      [
        "▁kak",
        -2445.0
      ],
      [
        "▁kib",
        -2446.0
      ],
      [
        "▁kub",
        -2447.0
      ],
      [
        "▁lem",
        -2448.0
      ],
      [
        "▁mam",
        -2449.0
      ],
      [
        "▁mim",
        -2450.0
      ],
      [
        "▁nap",
        -2451.0
      ],
      [
        "▁pir",
        -2452.0
      ],
      [
        "▁sat",
        -2453.0
      ],
      [
        "▁taš",
        -2454.0
      ],
      [
        "▁tiĝ",
        -2455.0
      ],
      [
        "▁tup",
        -2456.0
      ],
      [
        "▁zub",
        -2457.0
      ],
      [
        "▁ŠAG",
        -2458.0
      ],
      [
        "▁ŠAR",
        -2459.0
      ],
      [
        "▁ŠIM",
        -2460.0
      ],
      [
        "▁ŠUB",
        -2461.0
      ],
      [
        "▁ŠUM",
        -2462.0
      ],
      [
        "▁šal",
        -2463.0
      ],
      [
        "▁šap",
        -2464.0
      ],
      [
        "▁šat",
        -2465.0
      ],
      [
        "▁šed",
        -2466.0
      ],
      [
        "▁šip",
        -2467.0
      ],
      [
        "145)-",
        -2468.0
      ],
      [
        "2-30-",
        -2469.0
      ],
      [
        "7|){{",
        -2470.0
      ],
      [
        "ENKUM",
        -2471.0
      ],
      [
        "MOUNT",
        -2472.0
      ],
      [
        "NITAH",
        -2473.0
      ],
      [
        "absin",
        -2474.0
      ],
      [
        "asari",
        -2475.0
      ],
      [
        "gidba",
        -2476.0
      ],
      [
        "gidri",
        -2477.0
      ],
      [
        "gudug",
        -2478.0
      ],
      [
        "hirin",
        -2479.0
      ],
      [
        "huluh",
        -2480.0
      ],
      [
        "kisal",
        -2481.0
      ],
      [
        "kišig",
        -2482.0
      ],
      [
        "kunga",
        -2483.0
      ],
      [
        "lahšu",
        -2484.0
      ],
      [
        "mušen",
        -2485.0
      ],
      [
        "nammu",
        -2486.0
      ],
      [
        "nimin",
        -2487.0
      ],
      [
        "salim",
        -2488.0
      ],
      [
        "saman",
        -2489.0
      ],
      [
        "tarah",
        -2490.0
      ],
      [
        "tilla",
        -2491.0
      ],
      [
        "ugula",
        -2492.0
      ],
      [
        "ukkin",
        -2493.0
      ],
      [
        "ŠUBUR",
        -2494.0
      ],
      [
        "šilig",
        -2495.0
      ],
      [
        "šinak",
        -2496.0
      ],
      [
        "šurum",
        -2497.0
      ],
      [
        "▁ALAN",
        -2498.0
      ],
      [
        "▁AMAR",
        -2499.0
      ],
      [
        "▁BURU",
        -2500.0
      ],
      [
        "▁ELAM",
        -2501.0
      ],
      [
        "▁ERIN",
        -2502.0
      ],
      [
        "▁GADA",
        -2503.0
      ],
      [
        "▁KALA",
        -2504.0
      ],
      [
        "▁NINA",
        -2505.0
      ],
      [
        "▁URUD",
        -2506.0
      ],
      [
        "▁gugx",
        -2507.0
      ],
      [
        "▁išin",
        -2508.0
      ],
      [
        "▁mete",
        -2509.0
      ],
      [
        "▁ninx",
        -2510.0
      ],
      [
        "▁sisi",
        -2511.0
      ],
      [
        "▁teme",
        -2512.0
      ],
      [
        "▁tiru",
        -2513.0
      ],
      [
        "▁ugax",
        -2514.0
      ],
      [
        "▁ugux",
        -2515.0
      ],
      [
        "▁urgu",
        -2516.0
      ],
      [
        "BABBAR",
        -2517.0
      ],
      [
        "akkilx",
        -2518.0
      ],
      [
        "dimgal",
        -2519.0
      ],
      [
        "gambix",
        -2520.0
      ],
      [
        "iškila",
        -2521.0
      ],
      [
        "kukkuš",
        -2522.0
      ],
      [
        "lahtan",
        -2523.0
      ],
      [
        "nundum",
        -2524.0
      ],
      [
        "sirsir",
        -2525.0
      ],
      [
        "sumunx",
        -2526.0
      ],
      [
        "šagina",
        -2527.0
      ],
      [
        "šennur",
        -2528.0
      ],
      [
        "▁18600",
        -2529.0
      ],
      [
        "▁21000",
        -2530.0
      ],
      [
        "▁ENGUR",
        -2531.0
      ],
      [
        "▁ERIDU",
        -2532.0
      ],
      [
        "▁GALAM",
        -2533.0
      ],
      [
        "▁GILIM",
        -2534.0
      ],
      [
        "▁KISAL",
        -2535.0
      ],
      [
        "▁LIBIR",
        -2536.0
      ],
      [
        "▁MURGU",
        -2537.0
      ],
      [
        "▁NIGIN",
        -2538.0
      ],
      [
        "▁NITAH",
        -2539.0
      ],
      [
        "▁NUNUZ",
        -2540.0
      ],
      [
        "▁SUHUŠ",
        -2541.0
      ],
      [
        "▁UMBIN",
        -2542.0
      ],
      [
        "▁asilx",
        -2543.0
      ],
      [
        "▁bungu",
        -2544.0
      ],
      [
        "▁engiz",
        -2545.0
      ],
      [
        "▁garza",
        -2546.0
      ],
      [
        "▁giriš",
        -2547.0
      ],
      [
        "▁ildag",
        -2548.0
      ],
      [
        "▁inbir",
        -2549.0
      ],
      [
        "▁isimu",
        -2550.0
      ],
      [
        "▁kinda",
        -2551.0
      ],
      [
        "▁lulim",
        -2552.0
      ],
      [
        "▁lunga",
        -2553.0
      ],
      [
        "▁nigin",
        -2554.0
      ],
      [
        "▁ninim",
        -2555.0
      ],
      [
        "▁pisan",
        -2556.0
      ],
      [
        "▁titab",
        -2557.0
      ],
      [
        "▁tukur",
        -2558.0
      ],
      [
        "▁unudx",
        -2559.0
      ],
      [
        "▁uzugx",
        -2560.0
      ],
      [
        "▁zamug",
        -2561.0
      ],
      [
        "▁zapah",
        -2562.0
      ],
      [
        "▁ĝanun",
        -2563.0
      ],
      [
        "▁ĝešnu",
        -2564.0
      ],
      [
        "▁šudul",
        -2565.0
      ],
      [
        "▁šurim",
        -2566.0
      ],
      [
        "karkara",
        -2567.0
      ],
      [
        "zabalam",
        -2568.0
      ],
      [
        "▁MUNŠUB",
        -2569.0
      ],
      [
        "▁SUKKAL",
        -2570.0
      ],
      [
        "▁ararma",
        -2571.0
      ],
      [
        "▁asilal",
        -2572.0
      ],
      [
        "▁dimgul",
        -2573.0
      ],
      [
        "▁gukkal",
        -2574.0
      ],
      [
        "▁habrud",
        -2575.0
      ],
      [
        "▁inanna",
        -2576.0
      ],
      [
        "▁megida",
        -2577.0
      ],
      [
        "▁numunx",
        -2578.0
      ],
      [
        "▁zirrux",
        -2579.0
      ],
      [
        "▁ĝešbun",
        -2580.0
      ],
      [
        "▁ĝišbum",
        -2581.0
      ],
      [
        "▁šanabi",
        -2582.0
      ],
      [
        "▁šilamx",
        -2583.0
      ],
      [
        "MOUNTAIN",
        -2584.0
      ],
      [
        "indagara",
        -2585.0
      ],
      [
        "turungal",
        -2586.0
      ],
      [
        "▁kašbirx",
        -2587.0
      ],
      [
        "▁ligidba",
        -2588.0
      ],
      [
        "inšušinak",
        -2589.0
      ],
      [
        "▁ĝišnimbar",
        -2590.0
      ],
      [
        ".1",
        -2591.0
      ],
      [
        "1-",
        -2592.0
      ],
      [
        "23",
        -2593.0
      ],
      [
        "27",
        -2594.0
      ],
      [
        "32",
        -2595.0
      ],
      [
        "35",
        -2596.0
      ],
      [
        "45",
        -2597.0
      ],
      [
        "5|",
        -2598.0
      ],
      [
        "62",
        -2599.0
      ],
      [
        "78",
        -2600.0
      ],
      [
        "79",
        -2601.0
      ],
      [
        "88",
        -2602.0
      ],
      [
        "96",
        -2603.0
      ],
      [
        "AM",
        -2604.0
      ],
      [
        "AZ",
        -2605.0
      ],
      [
        "BE",
        -2606.0
      ],
      [
        "HE",
        -2607.0
      ],
      [
        "IK",
        -2608.0
      ],
      [
        "UX",
        -2609.0
      ],
      [
        "WA",
        -2610.0
      ],
      [
        "bx",
        -2611.0
      ],
      [
        "ep",
        -2612.0
      ],
      [
        "iu",
        -2613.0
      ],
      [
        "ux",
        -2614.0
      ],
      [
        "×(",
        -2615.0
      ],
      [
        "▁D",
        -2616.0
      ],
      [
        "▁r",
        -2617.0
      ],
      [
        "){{",
        -2618.0
      ],
      [
        ")|)",
        -2619.0
      ],
      [
        "-6(",
        -2620.0
      ],
      [
        ".1.",
        -2621.0
      ],
      [
        ".15",
        -2622.0
      ],
      [
        "0(|",
        -2623.0
      ],
      [
        "17{",
        -2624.0
      ],
      [
        "19(",
        -2625.0
      ],
      [
        "195",
        -2626.0
      ],
      [
        "2-1",
        -2627.0
      ],
      [
        "20-",
        -2628.0
      ],
      [
        "25-",
        -2629.0
      ],
      [
        "3-|",
        -2630.0
      ],
      [
        "4-{",
        -2631.0
      ],
      [
        "443",
        -2632.0
      ],
      [
        "4|)",
        -2633.0
      ],
      [
        "4}-",
        -2634.0
      ],
      [
        "50-",
        -2635.0
      ],
      [
        "510",
        -2636.0
      ],
      [
        "527",
        -2637.0
      ],
      [
        "792",
        -2638.0
      ],
      [
        "8|)",
        -2639.0
      ],
      [
        "9-|",
        -2640.0
      ],
      [
        "9}|",
        -2641.0
      ],
      [
        "AGA",
        -2642.0
      ],
      [
        "AMA",
        -2643.0
      ],
      [
        "BAL",
        -2644.0
      ],
      [
        "BAN",
        -2645.0
      ],
      [
        "BRU",
        -2646.0
      ],
      [
        "DIG",
        -2647.0
      ],
      [
        "DIL",
        -2648.0
      ],
      [
        "EME",
        -2649.0
      ],
      [
        "GUG",
        -2650.0
      ],
      [
        "ITI",
        -2651.0
      ],
      [
        "KAS",
        -2652.0
      ],
      [
        "KIM",
        -2653.0
      ],
      [
        "KIR",
        -2654.0
      ],
      [
        "KUD",
        -2655.0
      ],
      [
        "KUL",
        -2656.0
      ],
      [
        "LAH",
        -2657.0
      ],
      [
        "LUH",
        -2658.0
      ],
      [
        "MAH",
        -2659.0
      ],
      [
        "MEN",
        -2660.0
      ],
      [
        "MIR",
        -2661.0
      ],
      [
        "NAG",
        -2662.0
      ],
      [
        "PEŠ",
        -2663.0
      ],
      [
        "PIN",
        -2664.0
      ],
      [
        "RIG",
        -2665.0
      ],
      [
        "TIN",
        -2666.0
      ],
      [
        "UGU",
        -2667.0
      ],
      [
        "ZAG",
        -2668.0
      ],
      [
        "ZAL",
        -2669.0
      ],
      [
        "ZEM",
        -2670.0
      ],
      [
        "ZIG",
        -2671.0
      ],
      [
        "ZIZ",
        -2672.0
      ],
      [
        "ZUM",
        -2673.0
      ],
      [
        "aka",
        -2674.0
      ],
      [
        "azu",
        -2675.0
      ],
      [
        "bax",
        -2676.0
      ],
      [
        "daš",
        -2677.0
      ],
      [
        "deb",
        -2678.0
      ],
      [
        "dux",
        -2679.0
      ],
      [
        "eze",
        -2680.0
      ],
      [
        "gel",
        -2681.0
      ],
      [
        "ger",
        -2682.0
      ],
      [
        "gge",
        -2683.0
      ],
      [
        "gux",
        -2684.0
      ],
      [
        "han",
        -2685.0
      ],
      [
        "hat",
        -2686.0
      ],
      [
        "hax",
        -2687.0
      ],
      [
        "itu",
        -2688.0
      ],
      [
        "kel",
        -2689.0
      ],
      [
        "lak",
        -2690.0
      ],
      [
        "laĝ",
        -2691.0
      ],
      [
        "leĝ",
        -2692.0
      ],
      [
        "lis",
        -2693.0
      ],
      [
        "lla",
        -2694.0
      ],
      [
        "mit",
        -2695.0
      ],
      [
        "mut",
        -2696.0
      ],
      [
        "nax",
        -2697.0
      ],
      [
        "nis",
        -2698.0
      ],
      [
        "pal",
        -2699.0
      ],
      [
        "paq",
        -2700.0
      ],
      [
        "puk",
        -2701.0
      ],
      [
        "pum",
        -2702.0
      ],
      [
        "qal",
        -2703.0
      ],
      [
        "qid",
        -2704.0
      ],
      [
        "qir",
        -2705.0
      ],
      [
        "qur",
        -2706.0
      ],
      [
        "rak",
        -2707.0
      ],
      [
        "ruk",
        -2708.0
      ],
      [
        "sat",
        -2709.0
      ],
      [
        "ses",
        -2710.0
      ],
      [
        "ska",
        -2711.0
      ],
      [
        "sux",
        -2712.0
      ],
      [
        "tas",
        -2713.0
      ],
      [
        "tel",
        -2714.0
      ],
      [
        "tid",
        -2715.0
      ],
      [
        "tul",
        -2716.0
      ],
      [
        "uku",
        -2717.0
      ],
      [
        "ušx",
        -2718.0
      ],
      [
        "zak",
        -2719.0
      ],
      [
        "|-{",
        -2720.0
      ],
      [
        "ŠAL",
        -2721.0
      ],
      [
        "ŠEG",
        -2722.0
      ],
      [
        "ŠEN",
        -2723.0
      ],
      [
        "šad",
        -2724.0
      ],
      [
        "šal",
        -2725.0
      ],
      [
        "šan",
        -2726.0
      ],
      [
        "šed",
        -2727.0
      ],
      [
        "šil",
        -2728.0
      ],
      [
        "šiš",
        -2729.0
      ],
      [
        "šuk",
        -2730.0
      ],
      [
        "▁33",
        -2731.0
      ],
      [
        "▁46",
        -2732.0
      ],
      [
        "▁47",
        -2733.0
      ],
      [
        "▁55",
        -2734.0
      ],
      [
        "▁64",
        -2735.0
      ],
      [
        "▁71",
        -2736.0
      ],
      [
        "▁72",
        -2737.0
      ],
      [
        "▁76",
        -2738.0
      ],
      [
        "▁80",
        -2739.0
      ],
      [
        "▁81",
        -2740.0
      ],
      [
        "▁87",
        -2741.0
      ],
      [
        "▁GN",
        -2742.0
      ],
      [
        "▁IA",
        -2743.0
      ],
      [
        "▁ID",
        -2744.0
      ],
      [
        "▁PN",
        -2745.0
      ],
      [
        "▁UH",
        -2746.0
      ],
      [
        "▁UK",
        -2747.0
      ],
      [
        "▁WA",
        -2748.0
      ],
      [
        "▁eh",
        -2749.0
      ],
      [
        "▁ep",
        -2750.0
      ],
      [
        "▁es",
        -2751.0
      ],
      [
        "▁et",
        -2752.0
      ],
      [
        "▁ĝu",
        -2753.0
      ],
      [
        "(|4×",
        -2754.0
      ],
      [
        ")|)-",
        -2755.0
      ],
      [
        ".15.",
        -2756.0
      ],
      [
        "10{{",
        -2757.0
      ],
      [
        "10}-",
        -2758.0
      ],
      [
        "11(|",
        -2759.0
      ],
      [
        "1200",
        -2760.0
      ],
      [
        "131-",
        -2761.0
      ],
      [
        "18(|",
        -2762.0
      ],
      [
        "193)",
        -2763.0
      ],
      [
        "2-30",
        -2764.0
      ],
      [
        "2|{{",
        -2765.0
      ],
      [
        "5-{{",
        -2766.0
      ],
      [
        "8000",
        -2767.0
      ],
      [
        "8|)-",
        -2768.0
      ],
      [
        "AMAŠ",
        -2769.0
      ],
      [
        "BALA",
        -2770.0
      ],
      [
        "DUMU",
        -2771.0
      ],
      [
        "EDEN",
        -2772.0
      ],
      [
        "ISAN",
        -2773.0
      ],
      [
        "KARA",
        -2774.0
      ],
      [
        "KIŠI",
        -2775.0
      ],
      [
        "KUŠU",
        -2776.0
      ],
      [
        "NITA",
        -2777.0
      ],
      [
        "SIKI",
        -2778.0
      ],
      [
        "TIMA",
        -2779.0
      ],
      [
        "UNUG",
        -2780.0
      ],
      [
        "agar",
        -2781.0
      ],
      [
        "asil",
        -2782.0
      ],
      [
        "burx",
        -2783.0
      ],
      [
        "dimx",
        -2784.0
      ],
      [
        "epir",
        -2785.0
      ],
      [
        "ezim",
        -2786.0
      ],
      [
        "gamx",
        -2787.0
      ],
      [
        "gima",
        -2788.0
      ],
      [
        "gira",
        -2789.0
      ],
      [
        "immu",
        -2790.0
      ],
      [
        "kken",
        -2791.0
      ],
      [
        "kumx",
        -2792.0
      ],
      [
        "kušu",
        -2793.0
      ],
      [
        "lamx",
        -2794.0
      ],
      [
        "luhu",
        -2795.0
      ],
      [
        "lulu",
        -2796.0
      ],
      [
        "mara",
        -2797.0
      ],
      [
        "ninx",
        -2798.0
      ],
      [
        "ppak",
        -2799.0
      ],
      [
        "rigx",
        -2800.0
      ],
      [
        "ssal",
        -2801.0
      ],
      [
        "tigi",
        -2802.0
      ],
      [
        "urix",
        -2803.0
      ],
      [
        "usar",
        -2804.0
      ],
      [
        "ušur",
        -2805.0
      ],
      [
        "|-{{",
        -2806.0
      ],
      [
        "ŠITA",
        -2807.0
      ],
      [
        "šana",
        -2808.0
      ],
      [
        "šurx",
        -2809.0
      ],
      [
        "▁10(",
        -2810.0
      ],
      [
        "▁11.",
        -2811.0
      ],
      [
        "▁110",
        -2812.0
      ],
      [
        "▁116",
        -2813.0
      ],
      [
        "▁117",
        -2814.0
      ],
      [
        "▁123",
        -2815.0
      ],
      [
        "▁124",
        -2816.0
      ],
      [
        "▁125",
        -2817.0
      ],
      [
        "▁126",
        -2818.0
      ],
      [
        "▁131",
        -2819.0
      ],
      [
        "▁132",
        -2820.0
      ],
      [
        "▁134",
        -2821.0
      ],
      [
        "▁136",
        -2822.0
      ],
      [
        "▁137",
        -2823.0
      ],
      [
        "▁139",
        -2824.0
      ],
      [
        "▁157",
        -2825.0
      ],
      [
        "▁159",
        -2826.0
      ],
      [
        "▁161",
        -2827.0
      ],
      [
        "▁171",
        -2828.0
      ],
      [
        "▁177",
        -2829.0
      ],
      [
        "▁181",
        -2830.0
      ],
      [
        "▁184",
        -2831.0
      ],
      [
        "▁187",
        -2832.0
      ],
      [
        "▁195",
        -2833.0
      ],
      [
        "▁197",
        -2834.0
      ],
      [
        "▁20-",
        -2835.0
      ],
      [
        "▁201",
        -2836.0
      ],
      [
        "▁203",
        -2837.0
      ],
      [
        "▁225",
        -2838.0
      ],
      [
        "▁226",
        -2839.0
      ],
      [
        "▁240",
        -2840.0
      ],
      [
        "▁28-",
        -2841.0
      ],
      [
        "▁280",
        -2842.0
      ],
      [
        "▁290",
        -2843.0
      ],
      [
        "▁30-",
        -2844.0
      ],
      [
        "▁305",
        -2845.0
      ],
      [
        "▁324",
        -2846.0
      ],
      [
        "▁325",
        -2847.0
      ],
      [
        "▁396",
        -2848.0
      ],
      [
        "▁40-",
        -2849.0
      ],
      [
        "▁410",
        -2850.0
      ],
      [
        "▁485",
        -2851.0
      ],
      [
        "▁491",
        -2852.0
      ],
      [
        "▁55-",
        -2853.0
      ],
      [
        "▁578",
        -2854.0
      ],
      [
        "▁582",
        -2855.0
      ],
      [
        "▁586",
        -2856.0
      ],
      [
        "▁60(",
        -2857.0
      ],
      [
        "▁621",
        -2858.0
      ],
      [
        "▁625",
        -2859.0
      ],
      [
        "▁635",
        -2860.0
      ],
      [
        "▁670",
        -2861.0
      ],
      [
        "▁690",
        -2862.0
      ],
      [
        "▁70-",
        -2863.0
      ],
      [
        "▁745",
        -2864.0
      ],
      [
        "▁990",
        -2865.0
      ],
      [
        "▁BIL",
        -2866.0
      ],
      [
        "▁BUL",
        -2867.0
      ],
      [
        "▁DAH",
        -2868.0
      ],
      [
        "▁DIL",
        -2869.0
      ],
      [
        "▁GAZ",
        -2870.0
      ],
      [
        "▁GIG",
        -2871.0
      ],
      [
        "▁GUM",
        -2872.0
      ],
      [
        "▁HAŠ",
        -2873.0
      ],
      [
        "▁IKU",
        -2874.0
      ],
      [
        "▁KAD",
        -2875.0
      ],
      [
        "▁KAK",
        -2876.0
      ],
      [
        "▁KAS",
        -2877.0
      ],
      [
        "▁KIŠ",
        -2878.0
      ],
      [
        "▁KUD",
        -2879.0
      ],
      [
        "▁KUN",
        -2880.0
      ],
      [
        "▁LAG",
        -2881.0
      ],
      [
        "▁LAK",
        -2882.0
      ],
      [
        "▁LIŠ",
        -2883.0
      ],
      [
        "▁MEŠ",
        -2884.0
      ],
      [
        "▁NAB",
        -2885.0
      ],
      [
        "▁NAG",
        -2886.0
      ],
      [
        "▁SAM",
        -2887.0
      ],
      [
        "▁TAK",
        -2888.0
      ],
      [
        "▁TIL",
        -2889.0
      ],
      [
        "▁TUL",
        -2890.0
      ],
      [
        "▁TUŠ",
        -2891.0
      ],
      [
        "▁UDU",
        -2892.0
      ],
      [
        "▁UZU",
        -2893.0
      ],
      [
        "▁ZAG",
        -2894.0
      ],
      [
        "▁ZID",
        -2895.0
      ],
      [
        "▁adx",
        -2896.0
      ],
      [
        "▁azu",
        -2897.0
      ],
      [
        "▁deš",
        -2898.0
      ],
      [
        "▁dig",
        -2899.0
      ],
      [
        "▁dup",
        -2900.0
      ],
      [
        "▁git",
        -2901.0
      ],
      [
        "▁hun",
        -2902.0
      ],
      [
        "▁ilu",
        -2903.0
      ],
      [
        "▁kaq",
        -2904.0
      ],
      [
        "▁kat",
        -2905.0
      ],
      [
        "▁kit",
        -2906.0
      ],
      [
        "▁lim",
        -2907.0
      ],
      [
        "▁lit",
        -2908.0
      ],
      [
        "▁liš",
        -2909.0
      ],
      [
        "▁man",
        -2910.0
      ],
      [
        "▁mil",
        -2911.0
      ],
      [
        "▁mit",
        -2912.0
      ],
      [
        "▁nab",
        -2913.0
      ],
      [
        "▁nak",
        -2914.0
      ],
      [
        "▁nik",
        -2915.0
      ],
      [
        "▁pag",
        -2916.0
      ],
      [
        "▁pal",
        -2917.0
      ],
      [
        "▁pan",
        -2918.0
      ],
      [
        "▁pat",
        -2919.0
      ],
      [
        "▁per",
        -2920.0
      ],
      [
        "▁pul",
        -2921.0
      ],
      [
        "▁qal",
        -2922.0
      ],
      [
        "▁qaq",
        -2923.0
      ],
      [
        "▁qid",
        -2924.0
      ],
      [
        "▁qur",
        -2925.0
      ],
      [
        "▁qut",
        -2926.0
      ],
      [
        "▁raš",
        -2927.0
      ],
      [
        "▁rex",
        -2928.0
      ],
      [
        "▁reš",
        -2929.0
      ],
      [
        "▁rim",
        -2930.0
      ],
      [
        "▁rin",
        -2931.0
      ],
      [
        "▁sad",
        -2932.0
      ],
      [
        "▁sak",
        -2933.0
      ],
      [
        "▁sap",
        -2934.0
      ],
      [
        "▁sil",
        -2935.0
      ],
      [
        "▁sin",
        -2936.0
      ],
      [
        "▁suk",
        -2937.0
      ],
      [
        "▁tes",
        -2938.0
      ],
      [
        "▁tuh",
        -2939.0
      ],
      [
        "▁tuk",
        -2940.0
      ],
      [
        "▁ušu",
        -2941.0
      ],
      [
        "▁zah",
        -2942.0
      ],
      [
        "▁šad",
        -2943.0
      ],
      [
        "▁šam",
        -2944.0
      ],
      [
        "▁šib",
        -2945.0
      ],
      [
        "▁šit",
        -2946.0
      ],
      [
        "107|-",
        -2947.0
      ],
      [
        "193)-",
        -2948.0
      ],
      [
        "2)|)-",
        -2949.0
      ],
      [
        "BANDA",
        -2950.0
      ],
      [
        "BULUG",
        -2951.0
      ],
      [
        "DIGNA",
        -2952.0
      ],
      [
        "ENGUR",
        -2953.0
      ],
      [
        "EŠTUG",
        -2954.0
      ],
      [
        "GIDRI",
        -2955.0
      ],
      [
        "GILIM",
        -2956.0
      ],
      [
        "GURUN",
        -2957.0
      ],
      [
        "KISAL",
        -2958.0
      ],
      [
        "LAMMA",
        -2959.0
      ],
      [
        "LIBIR",
        -2960.0
      ],
      [
        "NIGIN",
        -2961.0
      ],
      [
        "NINDA",
        -2962.0
      ],
      [
        "NUSKA",
        -2963.0
      ],
      [
        "SIKIL",
        -2964.0
      ],
      [
        "SIPAD",
        -2965.0
      ],
      [
        "TUKUL",
        -2966.0
      ],
      [
        "ZALAG",
        -2967.0
      ],
      [
        "agrun",
        -2968.0
      ],
      [
        "akšak",
        -2969.0
      ],
      [
        "angur",
        -2970.0
      ],
      [
        "asila",
        -2971.0
      ],
      [
        "balak",
        -2972.0
      ],
      [
        "dahax",
        -2973.0
      ],
      [
        "dalha",
        -2974.0
      ],
      [
        "durah",
        -2975.0
      ],
      [
        "emeda",
        -2976.0
      ],
      [
        "enkar",
        -2977.0
      ],
      [
        "erina",
        -2978.0
      ],
      [
        "ešgar",
        -2979.0
      ],
      [
        "gašam",
        -2980.0
      ],
      [
        "gisal",
        -2981.0
      ],
      [
        "guruš",
        -2982.0
      ],
      [
        "gušur",
        -2983.0
      ],
      [
        "haniš",
        -2984.0
      ],
      [
        "harub",
        -2985.0
      ],
      [
        "ibila",
        -2986.0
      ],
      [
        "ildum",
        -2987.0
      ],
      [
        "irhan",
        -2988.0
      ],
      [
        "irina",
        -2989.0
      ],
      [
        "kešda",
        -2990.0
      ],
      [
        "kinda",
        -2991.0
      ],
      [
        "kulla",
        -2992.0
      ],
      [
        "kurku",
        -2993.0
      ],
      [
        "lugud",
        -2994.0
      ],
      [
        "lukur",
        -2995.0
      ],
      [
        "mudru",
        -2996.0
      ],
      [
        "murgu",
        -2997.0
      ],
      [
        "muzug",
        -2998.0
      ],
      [
        "nusku",
        -2999.0
      ],
      [
        "palil",
        -3000.0
      ],
      [
        "pirig",
        -3001.0
      ],
      [
        "tibir",
        -3002.0
      ],
      [
        "ubara",
        -3003.0
      ],
      [
        "umbin",
        -3004.0
      ],
      [
        "ušbar",
        -3005.0
      ],
      [
        "zzalx",
        -3006.0
      ],
      [
        "|)-{{",
        -3007.0
      ],
      [
        "}}50-",
        -3008.0
      ],
      [
        "ĝarin",
        -3009.0
      ],
      [
        "ĝešnu",
        -3010.0
      ],
      [
        "ŠAKIR",
        -3011.0
      ],
      [
        "šakan",
        -3012.0
      ],
      [
        "šamaš",
        -3013.0
      ],
      [
        "šatam",
        -3014.0
      ],
      [
        "šutug",
        -3015.0
      ],
      [
        "▁1080",
        -3016.0
      ],
      [
        "▁1110",
        -3017.0
      ],
      [
        "▁1320",
        -3018.0
      ],
      [
        "▁1500",
        -3019.0
      ],
      [
        "▁1525",
        -3020.0
      ],
      [
        "▁1560",
        -3021.0
      ],
      [
        "▁1625",
        -3022.0
      ],
      [
        "▁1800",
        -3023.0
      ],
      [
        "▁2220",
        -3024.0
      ],
      [
        "▁2310",
        -3025.0
      ],
      [
        "▁2610",
        -3026.0
      ],
      [
        "▁2760",
        -3027.0
      ],
      [
        "▁300-",
        -3028.0
      ],
      [
        "▁3195",
        -3029.0
      ],
      [
        "▁3443",
        -3030.0
      ],
      [
        "▁3588",
        -3031.0
      ],
      [
        "▁3792",
        -3032.0
      ],
      [
        "▁9032",
        -3033.0
      ],
      [
        "▁ALAM",
        -3034.0
      ],
      [
        "▁AMAŠ",
        -3035.0
      ],
      [
        "▁APIN",
        -3036.0
      ],
      [
        "▁BALA",
        -3037.0
      ],
      [
        "▁BARA",
        -3038.0
      ],
      [
        "▁EREN",
        -3039.0
      ],
      [
        "▁ERIM",
        -3040.0
      ],
      [
        "▁EZEM",
        -3041.0
      ],
      [
        "▁GEME",
        -3042.0
      ],
      [
        "▁GUDU",
        -3043.0
      ],
      [
        "▁KIŠI",
        -3044.0
      ],
      [
        "▁SILA",
        -3045.0
      ],
      [
        "▁TAKA",
        -3046.0
      ],
      [
        "▁UBUR",
        -3047.0
      ],
      [
        "▁USAN",
        -3048.0
      ],
      [
        "▁anzu",
        -3049.0
      ],
      [
        "▁azag",
        -3050.0
      ],
      [
        "▁dima",
        -3051.0
      ],
      [
        "▁dulu",
        -3052.0
      ],
      [
        "▁eger",
        -3053.0
      ],
      [
        "▁eriš",
        -3054.0
      ],
      [
        "▁ešda",
        -3055.0
      ],
      [
        "▁gamx",
        -3056.0
      ],
      [
        "▁gira",
        -3057.0
      ],
      [
        "▁gunu",
        -3058.0
      ],
      [
        "▁hulu",
        -3059.0
      ],
      [
        "▁illu",
        -3060.0
      ],
      [
        "▁isin",
        -3061.0
      ],
      [
        "▁isiš",
        -3062.0
      ],
      [
        "▁kidx",
        -3063.0
      ],
      [
        "▁kiše",
        -3064.0
      ],
      [
        "▁kumx",
        -3065.0
      ],
      [
        "▁libx",
        -3066.0
      ],
      [
        "▁lubx",
        -3067.0
      ],
      [
        "▁mara",
        -3068.0
      ],
      [
        "▁menx",
        -3069.0
      ],
      [
        "▁naga",
        -3070.0
      ],
      [
        "▁saĝa",
        -3071.0
      ],
      [
        "▁sedx",
        -3072.0
      ],
      [
        "▁sigx",
        -3073.0
      ],
      [
        "▁suhx",
        -3074.0
      ],
      [
        "▁surx",
        -3075.0
      ],
      [
        "▁tirx",
        -3076.0
      ],
      [
        "▁ugun",
        -3077.0
      ],
      [
        "▁ugur",
        -3078.0
      ],
      [
        "▁ulul",
        -3079.0
      ],
      [
        "▁urdu",
        -3080.0
      ],
      [
        "▁urux",
        -3081.0
      ],
      [
        "▁ĝeli",
        -3082.0
      ],
      [
        "▁ĝili",
        -3083.0
      ],
      [
        "▁ŠARU",
        -3084.0
      ],
      [
        "▁ŠITA",
        -3085.0
      ],
      [
        "▁šaga",
        -3086.0
      ],
      [
        "▁šarx",
        -3087.0
      ],
      [
        "GIŠGAL",
        -3088.0
      ],
      [
        "NIMGIR",
        -3089.0
      ],
      [
        "URUGAL",
        -3090.0
      ],
      [
        "addirx",
        -3091.0
      ],
      [
        "agarin",
        -3092.0
      ],
      [
        "azalag",
        -3093.0
      ],
      [
        "balbal",
        -3094.0
      ],
      [
        "bansur",
        -3095.0
      ],
      [
        "baragx",
        -3096.0
      ],
      [
        "ešgiri",
        -3097.0
      ],
      [
        "garigx",
        -3098.0
      ],
      [
        "gukkal",
        -3099.0
      ],
      [
        "henzer",
        -3100.0
      ],
      [
        "irigal",
        -3101.0
      ],
      [
        "kaskal",
        -3102.0
      ],
      [
        "ligima",
        -3103.0
      ],
      [
        "lillan",
        -3104.0
      ],
      [
        "lummar",
        -3105.0
      ],
      [
        "niskum",
        -3106.0
      ],
      [
        "niĝarx",
        -3107.0
      ],
      [
        "pisaĝx",
        -3108.0
      ],
      [
        "suhušx",
        -3109.0
      ],
      [
        "sukkal",
        -3110.0
      ],
      [
        "suluhu",
        -3111.0
      ],
      [
        "tidnim",
        -3112.0
      ],
      [
        "ĝiškim",
        -3113.0
      ],
      [
        "ĝušurx",
        -3114.0
      ],
      [
        "šilamx",
        -3115.0
      ],
      [
        "▁10062",
        -3116.0
      ],
      [
        "▁14400",
        -3117.0
      ],
      [
        "▁24510",
        -3118.0
      ],
      [
        "▁3600-",
        -3119.0
      ],
      [
        "▁43200",
        -3120.0
      ],
      [
        "▁64800",
        -3121.0
      ],
      [
        "▁BARAG",
        -3122.0
      ],
      [
        "▁BULUG",
        -3123.0
      ],
      [
        "▁GURUN",
        -3124.0
      ],
      [
        "▁ITIMA",
        -3125.0
      ],
      [
        "▁LAGAR",
        -3126.0
      ],
      [
        "▁NAGAR",
        -3127.0
      ],
      [
        "▁NIBRU",
        -3128.0
      ],
      [
        "▁NINDA",
        -3129.0
      ],
      [
        "▁PISAN",
        -3130.0
      ],
      [
        "▁SIKIL",
        -3131.0
      ],
      [
        "▁SUHUR",
        -3132.0
      ],
      [
        "▁SUMUN",
        -3133.0
      ],
      [
        "▁UKKIN",
        -3134.0
      ],
      [
        "▁URUDU",
        -3135.0
      ],
      [
        "▁adkin",
        -3136.0
      ],
      [
        "▁amagi",
        -3137.0
      ],
      [
        "▁arahx",
        -3138.0
      ],
      [
        "▁arkab",
        -3139.0
      ],
      [
        "▁bibad",
        -3140.0
      ],
      [
        "▁buluh",
        -3141.0
      ],
      [
        "▁buniĝ",
        -3142.0
      ],
      [
        "▁dagan",
        -3143.0
      ],
      [
        "▁dilib",
        -3144.0
      ],
      [
        "▁dilim",
        -3145.0
      ],
      [
        "▁edimx",
        -3146.0
      ],
      [
        "▁ellaĝ",
        -3147.0
      ],
      [
        "▁ensix",
        -3148.0
      ],
      [
        "▁erimx",
        -3149.0
      ],
      [
        "▁erina",
        -3150.0
      ],
      [
        "▁esaĝx",
        -3151.0
      ],
      [
        "▁ganam",
        -3152.0
      ],
      [
        "▁ganun",
        -3153.0
      ],
      [
        "▁gašan",
        -3154.0
      ],
      [
        "▁gegge",
        -3155.0
      ],
      [
        "▁geleĝ",
        -3156.0
      ],
      [
        "▁genna",
        -3157.0
      ],
      [
        "▁gigir",
        -3158.0
      ],
      [
        "▁girin",
        -3159.0
      ],
      [
        "▁halba",
        -3160.0
      ],
      [
        "▁harub",
        -3161.0
      ],
      [
        "▁ildux",
        -3162.0
      ],
      [
        "▁innin",
        -3163.0
      ],
      [
        "▁kabar",
        -3164.0
      ],
      [
        "▁kešda",
        -3165.0
      ],
      [
        "▁kirid",
        -3166.0
      ],
      [
        "▁kissa",
        -3167.0
      ],
      [
        "▁kunga",
        -3168.0
      ],
      [
        "▁kurin",
        -3169.0
      ],
      [
        "▁luhša",
        -3170.0
      ],
      [
        "▁muzug",
        -3171.0
      ],
      [
        "▁nanna",
        -3172.0
      ],
      [
        "▁niĝar",
        -3173.0
      ],
      [
        "▁nuska",
        -3174.0
      ],
      [
        "▁sagix",
        -3175.0
      ],
      [
        "▁subir",
        -3176.0
      ],
      [
        "▁subur",
        -3177.0
      ],
      [
        "▁sukux",
        -3178.0
      ],
      [
        "▁tigix",
        -3179.0
      ],
      [
        "▁tubax",
        -3180.0
      ],
      [
        "▁ĝeštu",
        -3181.0
      ],
      [
        "▁ĝisal",
        -3182.0
      ],
      [
        "▁ĝulla",
        -3183.0
      ],
      [
        "▁ŠUBUR",
        -3184.0
      ],
      [
        "▁ŠUDUN",
        -3185.0
      ],
      [
        "▁šagan",
        -3186.0
      ],
      [
        "▁šakir",
        -3187.0
      ],
      [
        "▁šennu",
        -3188.0
      ],
      [
        "▁šitax",
        -3189.0
      ],
      [
        "▁šudux",
        -3190.0
      ],
      [
        "alammuš",
        -3191.0
      ],
      [
        "garadin",
        -3192.0
      ],
      [
        "nergalx",
        -3193.0
      ],
      [
        "▁108000",
        -3194.0
      ],
      [
        "▁241200",
        -3195.0
      ],
      [
        "▁GEŠTUG",
        -3196.0
      ],
      [
        "▁HAŠHUR",
        -3197.0
      ],
      [
        "▁IDIGNA",
        -3198.0
      ],
      [
        "▁INANNA",
        -3199.0
      ],
      [
        "▁URUGAL",
        -3200.0
      ],
      [
        "▁asilax",
        -3201.0
      ],
      [
        "▁aĝarin",
        -3202.0
      ],
      [
        "▁bulugx",
        -3203.0
      ],
      [
        "▁duburx",
        -3204.0
      ],
      [
        "▁durunx",
        -3205.0
      ],
      [
        "▁enkara",
        -3206.0
      ],
      [
        "▁geštug",
        -3207.0
      ],
      [
        "▁gidlam",
        -3208.0
      ],
      [
        "▁gušurx",
        -3209.0
      ],
      [
        "▁idigna",
        -3210.0
      ],
      [
        "▁ilimmu",
        -3211.0
      ],
      [
        "▁immalx",
        -3212.0
      ],
      [
        "▁iškila",
        -3213.0
      ],
      [
        "▁kikken",
        -3214.0
      ],
      [
        "▁lillan",
        -3215.0
      ],
      [
        "▁munsub",
        -3216.0
      ],
      [
        "▁munzer",
        -3217.0
      ],
      [
        "▁tibirx",
        -3218.0
      ],
      [
        "▁ulušin",
        -3219.0
      ],
      [
        "▁urugal",
        -3220.0
      ],
      [
        "▁uttuku",
        -3221.0
      ],
      [
        "▁zilulu",
        -3222.0
      ],
      [
        "▁ĝessal",
        -3223.0
      ],
      [
        "▁ĝušurx",
        -3224.0
      ],
      [
        "▁šarrum",
        -3225.0
      ],
      [
        "▁šeĝbar",
        -3226.0
      ],
      [
        "▁šušana",
        -3227.0
      ],
      [
        "algamešx",
        -3228.0
      ],
      [
        "dalhamun",
        -3229.0
      ],
      [
        "menbulug",
        -3230.0
      ],
      [
        "▁72000(|",
        -3231.0
      ],
      [
        "▁arattax",
        -3232.0
      ],
      [
        "▁ganzerx",
        -3233.0
      ],
      [
        "▁gizzalx",
        -3234.0
      ],
      [
        "▁imĝaĝax",
        -3235.0
      ],
      [
        "▁umbisaĝ",
        -3236.0
      ],
      [
        "▁ĝizzalx",
        -3237.0
      ],
      [
        "▁ĝišbunx",
        -3238.0
      ],
      [
        "gilgamešx",
        -3239.0
      ],
      [
        "▁garadinx",
        -3240.0
      ],
      [
        "▁sulummar",
        -3241.0
      ],
      [
        "▁taškarin",
        -3242.0
      ],
      [
        "▁tuddahax",
        -3243.0
      ],
      [
        "▁ĝešimmar",
        -3244.0
      ],
      [
        "▁šabalbal",
        -3245.0
      ],
      [
        "▁šuruppak",
        -3246.0
      ],
      [
        "▁3600-3600-3600",
        -3247.0
      ],
      [
        ")|",
        -3248.0
      ],
      [
        "-1",
        -3249.0
      ],
      [
        "-5",
        -3250.0
      ],
      [
        "-6",
        -3251.0
      ],
      [
        "0(",
        -3252.0
      ],
      [
        "01",
        -3253.0
      ],
      [
        "03",
        -3254.0
      ],
      [
        "06",
        -3255.0
      ],
      [
        "07",
        -3256.0
      ],
      [
        "08",
        -3257.0
      ],
      [
        "0{",
        -3258.0
      ],
      [
        "0}",
        -3259.0
      ],
      [
        "1{",
        -3260.0
      ],
      [
        "24",
        -3261.0
      ],
      [
        "28",
        -3262.0
      ],
      [
        "29",
        -3263.0
      ],
      [
        "30",
        -3264.0
      ],
      [
        "33",
        -3265.0
      ],
      [
        "34",
        -3266.0
      ],
      [
        "36",
        -3267.0
      ],
      [
        "37",
        -3268.0
      ],
      [
        "39",
        -3269.0
      ],
      [
        "41",
        -3270.0
      ],
      [
        "42",
        -3271.0
      ],
      [
        "43",
        -3272.0
      ],
      [
        "46",
        -3273.0
      ],
      [
        "47",
        -3274.0
      ],
      [
        "48",
        -3275.0
      ],
      [
        "49",
        -3276.0
      ],
      [
        "5(",
        -3277.0
      ],
      [
        "50",
        -3278.0
      ],
      [
        "51",
        -3279.0
      ],
      [
        "55",
        -3280.0
      ],
      [
        "57",
        -3281.0
      ],
      [
        "58",
        -3282.0
      ],
      [
        "59",
        -3283.0
      ],
      [
        "64",
        -3284.0
      ],
      [
        "66",
        -3285.0
      ],
      [
        "67",
        -3286.0
      ],
      [
        "69",
        -3287.0
      ],
      [
        "7(",
        -3288.0
      ],
      [
        "70",
        -3289.0
      ],
      [
        "71",
        -3290.0
      ],
      [
        "72",
        -3291.0
      ],
      [
        "74",
        -3292.0
      ],
      [
        "76",
        -3293.0
      ],
      [
        "77",
        -3294.0
      ],
      [
        "7|",
        -3295.0
      ],
      [
        "8(",
        -3296.0
      ],
      [
        "8)",
        -3297.0
      ],
      [
        "80",
        -3298.0
      ],
      [
        "81",
        -3299.0
      ],
      [
        "05",
        -3300.0
      ],
      [
        "52",
        -3301.0
      ],
      [
        "61",
        -3302.0
      ],
      [
        "82",
        -3303.0
      ],
      [
        "85",
        -3304.0
      ],
      [
        "86",
        -3305.0
      ],
      [
        "87",
        -3306.0
      ],
      [
        "8{",
        -3307.0
      ],
      [
        "91",
        -3308.0
      ],
      [
        "92",
        -3309.0
      ],
      [
        "93",
        -3310.0
      ],
      [
        "95",
        -3311.0
      ],
      [
        "97",
        -3312.0
      ],
      [
        "99",
        -3313.0
      ],
      [
        "AC",
        -3314.0
      ],
      [
        "AP",
        -3315.0
      ],
      [
        "AS",
        -3316.0
      ],
      [
        "BB",
        -3317.0
      ],
      [
        "DR",
        -3318.0
      ],
      [
        "EA",
        -3319.0
      ],
      [
        "EC",
        -3320.0
      ],
      [
        "EE",
        -3321.0
      ],
      [
        "EG",
        -3322.0
      ],
      [
        "EL",
        -3323.0
      ],
      [
        "EM",
        -3324.0
      ],
      [
        "ES",
        -3325.0
      ],
      [
        "ET",
        -3326.0
      ],
      [
        "EZ",
        -3327.0
      ],
      [
        "FI",
        -3328.0
      ],
      [
        "GE",
        -3329.0
      ],
      [
        "GN",
        -3330.0
      ],
      [
        "IP",
        -3331.0
      ],
      [
        "IV",
        -3332.0
      ],
      [
        "IZ",
        -3333.0
      ],
      [
        "KK",
        -3334.0
      ],
      [
        "LO",
        -3335.0
      ],
      [
        "MB",
        -3336.0
      ],
      [
        "MG",
        -3337.0
      ],
      [
        "ND",
        -3338.0
      ],
      [
        "NG",
        -3339.0
      ],
      [
        "NK",
        -3340.0
      ],
      [
        "NN",
        -3341.0
      ],
      [
        "NZ",
        -3342.0
      ],
      [
        "NŠ",
        -3343.0
      ],
      [
        "OO",
        -3344.0
      ],
      [
        "OP",
        -3345.0
      ],
      [
        "OU",
        -3346.0
      ],
      [
        "PL",
        -3347.0
      ],
      [
        "PN",
        -3348.0
      ],
      [
        "RD",
        -3349.0
      ],
      [
        "RG",
        -3350.0
      ],
      [
        "RO",
        -3351.0
      ],
      [
        "SO",
        -3352.0
      ],
      [
        "TH",
        -3353.0
      ],
      [
        "TO",
        -3354.0
      ],
      [
        "UE",
        -3355.0
      ],
      [
        "UK",
        -3356.0
      ],
      [
        "UT",
        -3357.0
      ],
      [
        "ax",
        -3358.0
      ],
      [
        "bb",
        -3359.0
      ],
      [
        "bg",
        -3360.0
      ],
      [
        "bl",
        -3361.0
      ],
      [
        "br",
        -3362.0
      ],
      [
        "bs",
        -3363.0
      ],
      [
        "bt",
        -3364.0
      ],
      [
        "bz",
        -3365.0
      ],
      [
        "db",
        -3366.0
      ],
      [
        "dk",
        -3367.0
      ],
      [
        "dl",
        -3368.0
      ],
      [
        "dn",
        -3369.0
      ],
      [
        "dr",
        -3370.0
      ],
      [
        "dx",
        -3371.0
      ],
      [
        "ex",
        -3372.0
      ],
      [
        "gn",
        -3373.0
      ],
      [
        "gr",
        -3374.0
      ],
      [
        "hx",
        -3375.0
      ],
      [
        "hš",
        -3376.0
      ],
      [
        "ix",
        -3377.0
      ],
      [
        "kk",
        -3378.0
      ],
      [
        "kt",
        -3379.0
      ],
      [
        "kš",
        -3380.0
      ],
      [
        "lb",
        -3381.0
      ],
      [
        "ld",
        -3382.0
      ],
      [
        "lg",
        -3383.0
      ],
      [
        "lh",
        -3384.0
      ],
      [
        "ll",
        -3385.0
      ],
      [
        "lm",
        -3386.0
      ],
      [
        "lx",
        -3387.0
      ],
      [
        "mb",
        -3388.0
      ],
      [
        "mg",
        -3389.0
      ],
      [
        "mm",
        -3390.0
      ],
      [
        "mx",
        -3391.0
      ],
      [
        "mĝ",
        -3392.0
      ],
      [
        "nb",
        -3393.0
      ],
      [
        "nd",
        -3394.0
      ],
      [
        "ng",
        -3395.0
      ],
      [
        "nk",
        -3396.0
      ],
      [
        "nm",
        -3397.0
      ],
      [
        "nn",
        -3398.0
      ],
      [
        "ns",
        -3399.0
      ],
      [
        "54",
        -3400.0
      ],
      [
        "56",
        -3401.0
      ],
      [
        "63",
        -3402.0
      ],
      [
        "AI",
        -3403.0
      ],
      [
        "PP",
        -3404.0
      ],
      [
        "RN",
        -3405.0
      ],
      [
        "gg",
        -3406.0
      ],
      [
        "mh",
        -3407.0
      ],
      [
        "nt",
        -3408.0
      ],
      [
        "nx",
        -3409.0
      ],
      [
        "nz",
        -3410.0
      ],
      [
        "nš",
        -3411.0
      ],
      [
        "ps",
        -3412.0
      ],
      [
        "rd",
        -3413.0
      ],
      [
        "rg",
        -3414.0
      ],
      [
        "rh",
        -3415.0
      ],
      [
        "rk",
        -3416.0
      ],
      [
        "rm",
        -3417.0
      ],
      [
        "rr",
        -3418.0
      ],
      [
        "rs",
        -3419.0
      ],
      [
        "rt",
        -3420.0
      ],
      [
        "rx",
        -3421.0
      ],
      [
        "rz",
        -3422.0
      ],
      [
        "sk",
        -3423.0
      ],
      [
        "ss",
        -3424.0
      ],
      [
        "tt",
        -3425.0
      ],
      [
        "ua",
        -3426.0
      ],
      [
        "ue",
        -3427.0
      ],
      [
        "zk",
        -3428.0
      ],
      [
        "zz",
        -3429.0
      ],
      [
        "|(",
        -3430.0
      ],
      [
        "|4",
        -3431.0
      ],
      [
        "}5",
        -3432.0
      ],
      [
        "ĝb",
        -3433.0
      ],
      [
        "ĝr",
        -3434.0
      ],
      [
        "ĝx",
        -3435.0
      ],
      [
        "ĝĝ",
        -3436.0
      ],
      [
        "ĝš",
        -3437.0
      ],
      [
        "ŠG",
        -3438.0
      ],
      [
        "ŠH",
        -3439.0
      ],
      [
        "ŠK",
        -3440.0
      ],
      [
        "ŠT",
        -3441.0
      ],
      [
        "šb",
        -3442.0
      ],
      [
        "šd",
        -3443.0
      ],
      [
        "šh",
        -3444.0
      ],
      [
        "šk",
        -3445.0
      ],
      [
        "šn",
        -3446.0
      ],
      [
        "šp",
        -3447.0
      ],
      [
        "št",
        -3448.0
      ],
      [
        "šx",
        -3449.0
      ],
      [
        "▁L",
        -3450.0
      ],
      [
        "▁W",
        -3451.0
      ],
      [
        "▁b",
        -3452.0
      ],
      [
        "▁g",
        -3453.0
      ],
      [
        "▁l",
        -3454.0
      ],
      [
        "▁m",
        -3455.0
      ],
      [
        "(|4",
        -3456.0
      ],
      [
        "-10",
        -3457.0
      ],
      [
        "00-",
        -3458.0
      ],
      [
        "000",
        -3459.0
      ],
      [
        "0{{",
        -3460.0
      ],
      [
        "100",
        -3461.0
      ],
      [
        "108",
        -3462.0
      ],
      [
        "10}",
        -3463.0
      ],
      [
        "11(",
        -3464.0
      ],
      [
        "110",
        -3465.0
      ],
      [
        "120",
        -3466.0
      ],
      [
        "131",
        -3467.0
      ],
      [
        "145",
        -3468.0
      ],
      [
        "15.",
        -3469.0
      ],
      [
        "1{{",
        -3470.0
      ],
      [
        "210",
        -3471.0
      ],
      [
        "220",
        -3472.0
      ],
      [
        "30-",
        -3473.0
      ],
      [
        "310",
        -3474.0
      ],
      [
        "320",
        -3475.0
      ],
      [
        "400",
        -3476.0
      ],
      [
        "410",
        -3477.0
      ],
      [
        "412",
        -3478.0
      ],
      [
        "449",
        -3479.0
      ],
      [
        "500",
        -3480.0
      ],
      [
        "55-",
        -3481.0
      ],
      [
        "610",
        -3482.0
      ],
      [
        "625",
        -3483.0
      ],
      [
        "760",
        -3484.0
      ],
      [
        "7|)",
        -3485.0
      ],
      [
        "7|-",
        -3486.0
      ],
      [
        "8(|",
        -3487.0
      ],
      [
        "93)",
        -3488.0
      ],
      [
        "ABB",
        -3489.0
      ],
      [
        "ABZ",
        -3490.0
      ],
      [
        "AKA",
        -3491.0
      ],
      [
        "ALA",
        -3492.0
      ],
      [
        "ALE",
        -3493.0
      ],
      [
        "ANN",
        -3494.0
      ],
      [
        "ANŠ",
        -3495.0
      ],
      [
        "ARA",
        -3496.0
      ],
      [
        "ARU",
        -3497.0
      ],
      [
        "AŠH",
        -3498.0
      ],
      [
        "CLO",
        -3499.0
      ],
      [
        "1.",
        -3500.0
      ],
      [
        "31",
        -3501.0
      ],
      [
        "84",
        -3502.0
      ],
      [
        "BZ",
        -3503.0
      ],
      [
        "IT",
        -3504.0
      ],
      [
        "MM",
        -3505.0
      ],
      [
        "PE",
        -3506.0
      ],
      [
        "SH",
        -3507.0
      ],
      [
        "SK",
        -3508.0
      ],
      [
        "dd",
        -3509.0
      ],
      [
        "ht",
        -3510.0
      ],
      [
        "sb",
        -3511.0
      ],
      [
        "sl",
        -3512.0
      ],
      [
        "zl",
        -3513.0
      ],
      [
        "28-",
        -3514.0
      ],
      [
        "900",
        -3515.0
      ],
      [
        "DAH",
        -3516.0
      ],
      [
        "DIV",
        -3517.0
      ],
      [
        "DRI",
        -3518.0
      ],
      [
        "DUL",
        -3519.0
      ],
      [
        "DUM",
        -3520.0
      ],
      [
        "EAT",
        -3521.0
      ],
      [
        "EDE",
        -3522.0
      ],
      [
        "EDI",
        -3523.0
      ],
      [
        "ELA",
        -3524.0
      ],
      [
        "EMA",
        -3525.0
      ],
      [
        "ENG",
        -3526.0
      ],
      [
        "ERE",
        -3527.0
      ],
      [
        "ERI",
        -3528.0
      ],
      [
        "ERS",
        -3529.0
      ],
      [
        "EŠT",
        -3530.0
      ],
      [
        "GAD",
        -3531.0
      ],
      [
        "GIS",
        -3532.0
      ],
      [
        "GNA",
        -3533.0
      ],
      [
        "GUM",
        -3534.0
      ],
      [
        "GUN",
        -3535.0
      ],
      [
        "HER",
        -3536.0
      ],
      [
        "IDI",
        -3537.0
      ],
      [
        "IKI",
        -3538.0
      ],
      [
        "ILA",
        -3539.0
      ],
      [
        "IMA",
        -3540.0
      ],
      [
        "IMG",
        -3541.0
      ],
      [
        "IMI",
        -3542.0
      ],
      [
        "IMM",
        -3543.0
      ],
      [
        "INA",
        -3544.0
      ],
      [
        "INE",
        -3545.0
      ],
      [
        "IRD",
        -3546.0
      ],
      [
        "ISA",
        -3547.0
      ],
      [
        "ISH",
        -3548.0
      ],
      [
        "ISI",
        -3549.0
      ],
      [
        "ITA",
        -3550.0
      ],
      [
        "KIŠ",
        -3551.0
      ],
      [
        "KKA",
        -3552.0
      ],
      [
        "KKI",
        -3553.0
      ],
      [
        "LAC",
        -3554.0
      ],
      [
        "LIŠ",
        -3555.0
      ],
      [
        "MMA",
        -3556.0
      ],
      [
        "NAN",
        -3557.0
      ],
      [
        "NDA",
        -3558.0
      ],
      [
        "NIT",
        -3559.0
      ],
      [
        "NKU",
        -3560.0
      ],
      [
        "NTA",
        -3561.0
      ],
      [
        "NUG",
        -3562.0
      ],
      [
        "NUM",
        -3563.0
      ],
      [
        "NŠU",
        -3564.0
      ],
      [
        "ONZ",
        -3565.0
      ],
      [
        "OOD",
        -3566.0
      ],
      [
        "PIR",
        -3567.0
      ],
      [
        "PIS",
        -3568.0
      ],
      [
        "RDE",
        -3569.0
      ],
      [
        "REE",
        -3570.0
      ],
      [
        "RON",
        -3571.0
      ],
      [
        "SAN",
        -3572.0
      ],
      [
        "SIP",
        -3573.0
      ],
      [
        "SKA",
        -3574.0
      ],
      [
        "STO",
        -3575.0
      ],
      [
        "SUH",
        -3576.0
      ],
      [
        "SUR",
        -3577.0
      ],
      [
        "TER",
        -3578.0
      ],
      [
        "UDU",
        -3579.0
      ],
      [
        "UEN",
        -3580.0
      ],
      [
        "UGA",
        -3581.0
      ],
      [
        "UKU",
        -3582.0
      ],
      [
        "ULU",
        -3583.0
      ],
      [
        "UMU",
        -3584.0
      ],
      [
        "UNT",
        -3585.0
      ],
      [
        "URG",
        -3586.0
      ],
      [
        "abr",
        -3587.0
      ],
      [
        "abs",
        -3588.0
      ],
      [
        "adi",
        -3589.0
      ],
      [
        "agi",
        -3590.0
      ],
      [
        "agr",
        -3591.0
      ],
      [
        "aki",
        -3592.0
      ],
      [
        "akk",
        -3593.0
      ],
      [
        "akš",
        -3594.0
      ],
      [
        "amu",
        -3595.0
      ],
      [
        "ana",
        -3596.0
      ],
      [
        "ang",
        -3597.0
      ],
      [
        "ani",
        -3598.0
      ],
      [
        "ank",
        -3599.0
      ],
      [
        "RS",
        -3600.0
      ],
      [
        "šg",
        -3601.0
      ],
      [
        ")-1",
        -3602.0
      ],
      [
        "anu",
        -3603.0
      ],
      [
        "anx",
        -3604.0
      ],
      [
        "apa",
        -3605.0
      ],
      [
        "ari",
        -3606.0
      ],
      [
        "aru",
        -3607.0
      ],
      [
        "asi",
        -3608.0
      ],
      [
        "ata",
        -3609.0
      ],
      [
        "aza",
        -3610.0
      ],
      [
        "aĝa",
        -3611.0
      ],
      [
        "ašh",
        -3612.0
      ],
      [
        "bab",
        -3613.0
      ],
      [
        "bah",
        -3614.0
      ],
      [
        "bap",
        -3615.0
      ],
      [
        "bba",
        -3616.0
      ],
      [
        "bbi",
        -3617.0
      ],
      [
        "bga",
        -3618.0
      ],
      [
        "bib",
        -3619.0
      ],
      [
        "bis",
        -3620.0
      ],
      [
        "bla",
        -3621.0
      ],
      [
        "bri",
        -3622.0
      ],
      [
        "btu",
        -3623.0
      ],
      [
        "bzu",
        -3624.0
      ],
      [
        "dad",
        -3625.0
      ],
      [
        "dax",
        -3626.0
      ],
      [
        "daĝ",
        -3627.0
      ],
      [
        "dda",
        -3628.0
      ],
      [
        "ddi",
        -3629.0
      ],
      [
        "deg",
        -3630.0
      ],
      [
        "deh",
        -3631.0
      ],
      [
        "den",
        -3632.0
      ],
      [
        "deš",
        -3633.0
      ],
      [
        "did",
        -3634.0
      ],
      [
        "dla",
        -3635.0
      ],
      [
        "dli",
        -3636.0
      ],
      [
        "dni",
        -3637.0
      ],
      [
        "dnu",
        -3638.0
      ],
      [
        "dra",
        -3639.0
      ],
      [
        "dri",
        -3640.0
      ],
      [
        "dup",
        -3641.0
      ],
      [
        "dus",
        -3642.0
      ],
      [
        "ebi",
        -3643.0
      ],
      [
        "eda",
        -3644.0
      ],
      [
        "edx",
        -3645.0
      ],
      [
        "egi",
        -3646.0
      ],
      [
        "ela",
        -3647.0
      ],
      [
        "eli",
        -3648.0
      ],
      [
        "emu",
        -3649.0
      ],
      [
        "enb",
        -3650.0
      ],
      [
        "end",
        -3651.0
      ],
      [
        "ene",
        -3652.0
      ],
      [
        "eng",
        -3653.0
      ],
      [
        "eni",
        -3654.0
      ],
      [
        "enk",
        -3655.0
      ],
      [
        "enm",
        -3656.0
      ],
      [
        "enn",
        -3657.0
      ],
      [
        "ens",
        -3658.0
      ],
      [
        "enx",
        -3659.0
      ],
      [
        "enz",
        -3660.0
      ],
      [
        "erx",
        -3661.0
      ],
      [
        "ešb",
        -3662.0
      ],
      [
        "eši",
        -3663.0
      ],
      [
        "ešk",
        -3664.0
      ],
      [
        "ešt",
        -3665.0
      ],
      [
        "gad",
        -3666.0
      ],
      [
        "gak",
        -3667.0
      ],
      [
        "gax",
        -3668.0
      ],
      [
        "gaš",
        -3669.0
      ],
      [
        "geg",
        -3670.0
      ],
      [
        "gga",
        -3671.0
      ],
      [
        "ggi",
        -3672.0
      ],
      [
        "gis",
        -3673.0
      ],
      [
        "git",
        -3674.0
      ],
      [
        "gix",
        -3675.0
      ],
      [
        "gna",
        -3676.0
      ],
      [
        "gni",
        -3677.0
      ],
      [
        "gri",
        -3678.0
      ],
      [
        "guk",
        -3679.0
      ],
      [
        "guš",
        -3680.0
      ],
      [
        "hta",
        -3681.0
      ],
      [
        "hša",
        -3682.0
      ],
      [
        "hšu",
        -3683.0
      ],
      [
        "iba",
        -3684.0
      ],
      [
        "ibi",
        -3685.0
      ],
      [
        "ibx",
        -3686.0
      ],
      [
        "ida",
        -3687.0
      ],
      [
        "idi",
        -3688.0
      ],
      [
        "idu",
        -3689.0
      ],
      [
        "iga",
        -3690.0
      ],
      [
        "ika",
        -3691.0
      ],
      [
        "ila",
        -3692.0
      ],
      [
        "ilu",
        -3693.0
      ],
      [
        "ilx",
        -3694.0
      ],
      [
        "ima",
        -3695.0
      ],
      [
        "imu",
        -3696.0
      ],
      [
        "ini",
        -3697.0
      ],
      [
        "ink",
        -3698.0
      ],
      [
        "inx",
        -3699.0
      ],
      [
        "inš",
        -3700.0
      ],
      [
        "ira",
        -3701.0
      ],
      [
        "irh",
        -3702.0
      ],
      [
        "iru",
        -3703.0
      ],
      [
        "irx",
        -3704.0
      ],
      [
        "isa",
        -3705.0
      ],
      [
        "ita",
        -3706.0
      ],
      [
        "iĝi",
        -3707.0
      ],
      [
        "kka",
        -3708.0
      ],
      [
        "ktu",
        -3709.0
      ],
      [
        "lad",
        -3710.0
      ],
      [
        "lax",
        -3711.0
      ],
      [
        "lba",
        -3712.0
      ],
      [
        "lda",
        -3713.0
      ],
      [
        "ldi",
        -3714.0
      ],
      [
        "ldu",
        -3715.0
      ],
      [
        "lga",
        -3716.0
      ],
      [
        "lha",
        -3717.0
      ],
      [
        "lip",
        -3718.0
      ],
      [
        "llu",
        -3719.0
      ],
      [
        "lmu",
        -3720.0
      ],
      [
        "lud",
        -3721.0
      ],
      [
        "luk",
        -3722.0
      ],
      [
        "lun",
        -3723.0
      ],
      [
        "lur",
        -3724.0
      ],
      [
        "lut",
        -3725.0
      ],
      [
        "luĝ",
        -3726.0
      ],
      [
        "luš",
        -3727.0
      ],
      [
        "mam",
        -3728.0
      ],
      [
        "max",
        -3729.0
      ],
      [
        "mba",
        -3730.0
      ],
      [
        "mbi",
        -3731.0
      ],
      [
        "mbu",
        -3732.0
      ],
      [
        "met",
        -3733.0
      ],
      [
        "mga",
        -3734.0
      ],
      [
        "mgu",
        -3735.0
      ],
      [
        "mim",
        -3736.0
      ],
      [
        "mma",
        -3737.0
      ],
      [
        "mmu",
        -3738.0
      ],
      [
        "muh",
        -3739.0
      ],
      [
        "mus",
        -3740.0
      ],
      [
        "muz",
        -3741.0
      ],
      [
        "mĝa",
        -3742.0
      ],
      [
        "nab",
        -3743.0
      ],
      [
        "nap",
        -3744.0
      ],
      [
        "nba",
        -3745.0
      ],
      [
        "nbi",
        -3746.0
      ],
      [
        "nda",
        -3747.0
      ],
      [
        "ndu",
        -3748.0
      ],
      [
        "nes",
        -3749.0
      ],
      [
        "ngi",
        -3750.0
      ],
      [
        "ngu",
        -3751.0
      ],
      [
        "nid",
        -3752.0
      ],
      [
        "nik",
        -3753.0
      ],
      [
        "nku",
        -3754.0
      ],
      [
        "nni",
        -3755.0
      ],
      [
        "nnu",
        -3756.0
      ],
      [
        "nsu",
        -3757.0
      ],
      [
        "nta",
        -3758.0
      ],
      [
        "nug",
        -3759.0
      ],
      [
        "nzu",
        -3760.0
      ],
      [
        "nše",
        -3761.0
      ],
      [
        "pat",
        -3762.0
      ],
      [
        "per",
        -3763.0
      ],
      [
        "pin",
        -3764.0
      ],
      [
        "ppa",
        -3765.0
      ],
      [
        "psi",
        -3766.0
      ],
      [
        "pul",
        -3767.0
      ],
      [
        "puz",
        -3768.0
      ],
      [
        "qut",
        -3769.0
      ],
      [
        "rad",
        -3770.0
      ],
      [
        "rar",
        -3771.0
      ],
      [
        "rdu",
        -3772.0
      ],
      [
        "ren",
        -3773.0
      ],
      [
        "rex",
        -3774.0
      ],
      [
        "reš",
        -3775.0
      ],
      [
        "rga",
        -3776.0
      ],
      [
        "rgu",
        -3777.0
      ],
      [
        "rid",
        -3778.0
      ],
      [
        "riš",
        -3779.0
      ],
      [
        "rka",
        -3780.0
      ],
      [
        "rsi",
        -3781.0
      ],
      [
        "rux",
        -3782.0
      ],
      [
        "rza",
        -3783.0
      ],
      [
        "sip",
        -3784.0
      ],
      [
        "six",
        -3785.0
      ],
      [
        "siš",
        -3786.0
      ],
      [
        "sku",
        -3787.0
      ],
      [
        "sla",
        -3788.0
      ],
      [
        "suk",
        -3789.0
      ],
      [
        "tax",
        -3790.0
      ],
      [
        "tem",
        -3791.0
      ],
      [
        "ttu",
        -3792.0
      ],
      [
        "tua",
        -3793.0
      ],
      [
        "tuh",
        -3794.0
      ],
      [
        "tup",
        -3795.0
      ],
      [
        "uba",
        -3796.0
      ],
      [
        "ubi",
        -3797.0
      ],
      [
        "uda",
        -3798.0
      ],
      [
        "uen",
        -3799.0
      ],
      [
        "uga",
        -3800.0
      ],
      [
        "uma",
        -3801.0
      ],
      [
        "umu",
        -3802.0
      ],
      [
        "una",
        -3803.0
      ],
      [
        "uni",
        -3804.0
      ],
      [
        "unk",
        -3805.0
      ],
      [
        "unx",
        -3806.0
      ],
      [
        "ura",
        -3807.0
      ],
      [
        "urd",
        -3808.0
      ],
      [
        "urg",
        -3809.0
      ],
      [
        "urk",
        -3810.0
      ],
      [
        "urt",
        -3811.0
      ],
      [
        "usa",
        -3812.0
      ],
      [
        "ušu",
        -3813.0
      ],
      [
        "zem",
        -3814.0
      ],
      [
        "zen",
        -3815.0
      ],
      [
        "zim",
        -3816.0
      ],
      [
        "zla",
        -3817.0
      ],
      [
        "zub",
        -3818.0
      ],
      [
        "zuk",
        -3819.0
      ],
      [
        "zux",
        -3820.0
      ],
      [
        "zza",
        -3821.0
      ],
      [
        "}}5",
        -3822.0
      ],
      [
        "ĝax",
        -3823.0
      ],
      [
        "ĝaĝ",
        -3824.0
      ],
      [
        "ĝba",
        -3825.0
      ],
      [
        "ĝer",
        -3826.0
      ],
      [
        "ĝid",
        -3827.0
      ],
      [
        "ĝil",
        -3828.0
      ],
      [
        "ĝin",
        -3829.0
      ],
      [
        "ĝis",
        -3830.0
      ],
      [
        "ĝiz",
        -3831.0
      ],
      [
        "ĝri",
        -3832.0
      ],
      [
        "ĝul",
        -3833.0
      ],
      [
        "ĝur",
        -3834.0
      ],
      [
        "ĝuš",
        -3835.0
      ],
      [
        "ĝĝa",
        -3836.0
      ],
      [
        "ĝšu",
        -3837.0
      ],
      [
        "ŠAK",
        -3838.0
      ],
      [
        "ŠGA",
        -3839.0
      ],
      [
        "šba",
        -3840.0
      ],
      [
        "šbi",
        -3841.0
      ],
      [
        "šda",
        -3842.0
      ],
      [
        "šga",
        -3843.0
      ],
      [
        "šgi",
        -3844.0
      ],
      [
        "šig",
        -3845.0
      ],
      [
        "ška",
        -3846.0
      ],
      [
        "ški",
        -3847.0
      ],
      [
        "šku",
        -3848.0
      ],
      [
        "šna",
        -3849.0
      ],
      [
        "šni",
        -3850.0
      ],
      [
        "šnu",
        -3851.0
      ],
      [
        "špa",
        -3852.0
      ],
      [
        "šta",
        -3853.0
      ],
      [
        "šut",
        -3854.0
      ],
      [
        "▁29",
        -3855.0
      ],
      [
        "▁31",
        -3856.0
      ],
      [
        "▁37",
        -3857.0
      ],
      [
        "▁39",
        -3858.0
      ],
      [
        "▁42",
        -3859.0
      ],
      [
        "▁57",
        -3860.0
      ],
      [
        "▁62",
        -3861.0
      ],
      [
        "▁63",
        -3862.0
      ],
      [
        "▁66",
        -3863.0
      ],
      [
        "▁69",
        -3864.0
      ],
      [
        "▁74",
        -3865.0
      ],
      [
        "▁84",
        -3866.0
      ],
      [
        "▁96",
        -3867.0
      ],
      [
        "▁AP",
        -3868.0
      ],
      [
        "▁AR",
        -3869.0
      ],
      [
        "▁EZ",
        -3870.0
      ],
      [
        "▁GE",
        -3871.0
      ],
      [
        "▁IK",
        -3872.0
      ],
      [
        "▁IT",
        -3873.0
      ],
      [
        "▁RE",
        -3874.0
      ],
      [
        ")-{{",
        -3875.0
      ],
      [
        "2000",
        -3876.0
      ],
      [
        "3200",
        -3877.0
      ],
      [
        "3600",
        -3878.0
      ],
      [
        "4800",
        -3879.0
      ],
      [
        "600-",
        -3880.0
      ],
      [
        "93)-",
        -3881.0
      ],
      [
        "AGAR",
        -3882.0
      ],
      [
        "AHAR",
        -3883.0
      ],
      [
        "ANDA",
        -3884.0
      ],
      [
        "ARAG",
        -3885.0
      ],
      [
        "ATER",
        -3886.0
      ],
      [
        "BILA",
        -3887.0
      ],
      [
        "BULU",
        -3888.0
      ],
      [
        "CLOT",
        -3889.0
      ],
      [
        "ENKU",
        -3890.0
      ],
      [
        "EREN",
        -3891.0
      ],
      [
        "ERIM",
        -3892.0
      ],
      [
        "EŠTU",
        -3893.0
      ],
      [
        "GALA",
        -3894.0
      ],
      [
        "GUDU",
        -3895.0
      ],
      [
        "GURU",
        -3896.0
      ],
      [
        "IBIR",
        -3897.0
      ],
      [
        "ILAM",
        -3898.0
      ],
      [
        "IMMU",
        -3899.0
      ],
      [
        "INAN",
        -3900.0
      ],
      [
        "INDA",
        -3901.0
      ],
      [
        "ISAB",
        -3902.0
      ],
      [
        "ISIM",
        -3903.0
      ],
      [
        "KKIN",
        -3904.0
      ],
      [
        "LAGA",
        -3905.0
      ],
      [
        "LEAT",
        -3906.0
      ],
      [
        "LUGA",
        -3907.0
      ],
      [
        "MUNU",
        -3908.0
      ],
      [
        "NIGI",
        -3909.0
      ],
      [
        "NUMU",
        -3910.0
      ],
      [
        "NUNU",
        -3911.0
      ],
      [
        "ONZE",
        -3912.0
      ],
      [
        "PERS",
        -3913.0
      ],
      [
        "PLAC",
        -3914.0
      ],
      [
        "PLAN",
        -3915.0
      ],
      [
        "PPER",
        -3916.0
      ],
      [
        "UGAL",
        -3917.0
      ],
      [
        "VINE",
        -3918.0
      ],
      [
        "ZALA",
        -3919.0
      ],
      [
        "abra",
        -3920.0
      ],
      [
        "abri",
        -3921.0
      ],
      [
        "abru",
        -3922.0
      ],
      [
        "addi",
        -3923.0
      ],
      [
        "akan",
        -3924.0
      ],
      [
        "aktu",
        -3925.0
      ],
      [
        "alga",
        -3926.0
      ],
      [
        "amba",
        -3927.0
      ],
      [
        "anka",
        -3928.0
      ],
      [
        "anun",
        -3929.0
      ],
      [
        "aĝar",
        -3930.0
      ],
      [
        "ašga",
        -3931.0
      ],
      [
        "ašna",
        -3932.0
      ],
      [
        "babi",
        -3933.0
      ],
      [
        "bans",
        -3934.0
      ],
      [
        "banš",
        -3935.0
      ],
      [
        "bbir",
        -3936.0
      ],
      [
        "bgal",
        -3937.0
      ],
      [
        "biba",
        -3938.0
      ],
      [
        "bilu",
        -3939.0
      ],
      [
        "birx",
        -3940.0
      ],
      [
        "bisa",
        -3941.0
      ],
      [
        "bizi",
        -3942.0
      ],
      [
        "btum",
        -3943.0
      ],
      [
        "buni",
        -3944.0
      ],
      [
        "bunx",
        -3945.0
      ],
      [
        "daba",
        -3946.0
      ],
      [
        "dabi",
        -3947.0
      ],
      [
        "dada",
        -3948.0
      ],
      [
        "daga",
        -3949.0
      ],
      [
        "daha",
        -3950.0
      ],
      [
        "daĝa",
        -3951.0
      ],
      [
        "dima",
        -3952.0
      ],
      [
        "dinx",
        -3953.0
      ],
      [
        "dirx",
        -3954.0
      ],
      [
        "diĝi",
        -3955.0
      ],
      [
        "dnim",
        -3956.0
      ],
      [
        "dugu",
        -3957.0
      ],
      [
        "dura",
        -3958.0
      ],
      [
        "enbu",
        -3959.0
      ],
      [
        "enga",
        -3960.0
      ],
      [
        "engi",
        -3961.0
      ],
      [
        "enka",
        -3962.0
      ],
      [
        "enku",
        -3963.0
      ],
      [
        "enna",
        -3964.0
      ],
      [
        "ennu",
        -3965.0
      ],
      [
        "ešba",
        -3966.0
      ],
      [
        "ešda",
        -3967.0
      ],
      [
        "ešga",
        -3968.0
      ],
      [
        "ešgi",
        -3969.0
      ],
      [
        "ešim",
        -3970.0
      ],
      [
        "ešni",
        -3971.0
      ],
      [
        "ešnu",
        -3972.0
      ],
      [
        "eštu",
        -3973.0
      ],
      [
        "galx",
        -3974.0
      ],
      [
        "game",
        -3975.0
      ],
      [
        "ganu",
        -3976.0
      ],
      [
        "gari",
        -3977.0
      ],
      [
        "gele",
        -3978.0
      ],
      [
        "gešt",
        -3979.0
      ],
      [
        "gibi",
        -3980.0
      ],
      [
        "gidi",
        -3981.0
      ],
      [
        "gigi",
        -3982.0
      ],
      [
        "gisa",
        -3983.0
      ],
      [
        "gnim",
        -3984.0
      ],
      [
        "grig",
        -3985.0
      ],
      [
        "gudu",
        -3986.0
      ],
      [
        "gula",
        -3987.0
      ],
      [
        "hamu",
        -3988.0
      ],
      [
        "hani",
        -3989.0
      ],
      [
        "haru",
        -3990.0
      ],
      [
        "henz",
        -3991.0
      ],
      [
        "hurx",
        -3992.0
      ],
      [
        "idig",
        -3993.0
      ],
      [
        "igal",
        -3994.0
      ],
      [
        "ilam",
        -3995.0
      ],
      [
        "ilda",
        -3996.0
      ],
      [
        "ildu",
        -3997.0
      ],
      [
        "ilib",
        -3998.0
      ],
      [
        "illa",
        -3999.0
      ],
      [
        "ilmu",
        -4000.0
      ],
      [
        "inan",
        -4001.0
      ],
      [
        "ingi",
        -4002.0
      ],
      [
        "irig",
        -4003.0
      ],
      [
        "irim",
        -4004.0
      ],
      [
        "irin",
        -4005.0
      ],
      [
        "iriĝ",
        -4006.0
      ],
      [
        "isaĝ",
        -4007.0
      ],
      [
        "iški",
        -4008.0
      ],
      [
        "kibi",
        -4009.0
      ],
      [
        "kilx",
        -4010.0
      ],
      [
        "kink",
        -4011.0
      ],
      [
        "kisa",
        -4012.0
      ],
      [
        "kkil",
        -4013.0
      ],
      [
        "kkin",
        -4014.0
      ],
      [
        "kkuš",
        -4015.0
      ],
      [
        "lamu",
        -4016.0
      ],
      [
        "ldim",
        -4017.0
      ],
      [
        "libi",
        -4018.0
      ],
      [
        "libx",
        -4019.0
      ],
      [
        "ligi",
        -4020.0
      ],
      [
        "liru",
        -4021.0
      ],
      [
        "llag",
        -4022.0
      ],
      [
        "luga",
        -4023.0
      ],
      [
        "lugu",
        -4024.0
      ],
      [
        "lugx",
        -4025.0
      ],
      [
        "lumh",
        -4026.0
      ],
      [
        "magi",
        -4027.0
      ],
      [
        "malu",
        -4028.0
      ],
      [
        "malx",
        -4029.0
      ],
      [
        "manx",
        -4030.0
      ],
      [
        "mbar",
        -4031.0
      ],
      [
        "meda",
        -4032.0
      ],
      [
        "megi",
        -4033.0
      ],
      [
        "menx",
        -4034.0
      ],
      [
        "mešx",
        -4035.0
      ],
      [
        "mgal",
        -4036.0
      ],
      [
        "mgul",
        -4037.0
      ],
      [
        "mitu",
        -4038.0
      ],
      [
        "mudx",
        -4039.0
      ],
      [
        "muha",
        -4040.0
      ],
      [
        "munx",
        -4041.0
      ],
      [
        "munz",
        -4042.0
      ],
      [
        "murx",
        -4043.0
      ],
      [
        "muzu",
        -4044.0
      ],
      [
        "naga",
        -4045.0
      ],
      [
        "nana",
        -4046.0
      ],
      [
        "nani",
        -4047.0
      ],
      [
        "nemu",
        -4048.0
      ],
      [
        "nesa",
        -4049.0
      ],
      [
        "ngal",
        -4050.0
      ],
      [
[...]
